/**
  ******************************************************************************
  * @file    network_data_params.c
  * @author  AST Embedded Analytics Research Platform
  * @date    2026-07-22T15:19:42+0530
  * @brief   AI Tool Automatic Code Generator for Embedded NN computing
  ******************************************************************************
  * Copyright (c) 2026 STMicroelectronics.
  * All rights reserved.
  *
  * This software is licensed under terms that can be found in the LICENSE file
  * in the root directory of this software component.
  * If no LICENSE file comes with this software, it is provided AS-IS.
  ******************************************************************************
  */

#include "network_data_params.h"


/**  Activations Section  ****************************************************/
ai_handle g_network_activations_table[1 + 2] = {
  AI_HANDLE_PTR(AI_MAGIC_MARKER),
  AI_HANDLE_PTR(NULL),
  AI_HANDLE_PTR(AI_MAGIC_MARKER),
};




/**  Weights Section  ********************************************************/
AI_ALIGNED(32)
const ai_u64 s_network_weights_array_u64[1347] = {
  0x3ef5c6493ec1f1e1U, 0x3f45ef14be11527bU, 0x3e4a77c0bea7671dU, 0x3e82c087be2f76daU,
  0xbf029f2b3f0b9a08U, 0x3cc1f14f3eafd504U, 0xbe9e6c463f1ad6f7U, 0x38890fb33dea6f54U,
  0xbd4e2ab33f1e7bdeU, 0x3db695a9be526b36U, 0xbd441a18be4fdfb8U, 0x3e830658be390e92U,
  0xbe55ead1bea9cc9aU, 0xbe8704aebdfe1cb0U, 0xbece72a23cd8d857U, 0xbebc34253f10fe6aU,
  0x3e17e93c3f0b1855U, 0x3ebd4b8a3dadc352U, 0x3ebce0ee3e540e8bU, 0xbe5e7b3a3ea14db5U,
  0xbdccd5323e504ce3U, 0x3eb762ce3e6fbb69U, 0xbe70019b3eae6537U, 0x3ddf38733ebba3ebU,
  0xbe38f7583e2a1e81U, 0xbf2041c5bee2e84fU, 0x3f48591ebe5b3aa9U, 0x3e297d7e3e4993e6U,
  0x3d466bb63eb692fdU, 0xbecea0d53ebbd3b8U, 0xbfa54ace3e8a358cU, 0x3e80d9393e851a16U,
  0xbd21efe43d49b0beU, 0xbeabf2f53f3762b1U, 0xbdb186cfbe9a38afU, 0xb9f552083f3571d8U,
  0xbdfb310e3edd6b35U, 0xbea6bf5cbe7ff676U, 0x3ef6a416bf6b119bU, 0x3f6226303dd7648cU,
  0xbf0767f4be433e54U, 0xbec632773e06d25cU, 0xbdedb29c3eb14ad5U, 0xbf3574733e91e87aU,
  0x3c83b76dbf13808bU, 0xbc05c4cb3d8c68f4U, 0x3f393f3a3e8adf1eU, 0x3bed45cdbf862864U,
  0x3daf91463effd742U, 0xbf6586ed3bf99114U, 0x3ec26d7dbe7927cfU, 0xbe7066a3bd394699U,
  0xbeb6adb73e252128U, 0xbb588524bf489c7dU, 0xbf0c3c703e0dd63bU, 0x3e9051d13f21831bU,
  0xbf807f9f3d09df1eU, 0xbe0b262ebe8947eaU, 0xbeb7ec853d82bda0U, 0xbe7a456bbe341ff7U,
  0xbe1b8e6e3a944a00U, 0xbe8da3eabce7c030U, 0xbe73e392be8f78f4U, 0xbf2cd927be62b1b0U,
  0x3d9e863a3f0279d7U, 0xbd2a54253f4c2adfU, 0x3e90a6c0beb1000aU, 0xbe203f7ebde60be8U,
  0xbecfcd75bead8102U, 0xbe2cebba3f07c33eU, 0xbd9fa07d3e987128U, 0xbf4988c43ed711aaU,
  0x3e2a2b8cbcf02ce7U, 0x3f5c31533d8b1da5U, 0xbf35cf6f3e877823U, 0xbe1448a03eb2fe30U,
  0xbe20d4c63cbbf6daU, 0xbf52d7573ed16b16U, 0x3ccb4ebd3e9926e3U, 0xbeda5a463e23c82cU,
  0x3e6be40c3f5cbf54U, 0xbef7de2b3dacbdceU, 0x3d1d13bf3e28525aU, 0x3f64664ebe80b31aU,
  0xbf01aed63cedf714U, 0x3e2c85e4be6e0056U, 0xbeccaab43ec854e9U, 0xbe1643d7bda99a60U,
  0x3f030ce8bec00dfdU, 0xbf2fce4b3ee2dfb9U, 0x3e363e013e51a946U, 0xbe7fc9cf3e8452b9U,
  0x3e92902f3eba6e4cU, 0xbd92eb5c3e1c51a4U, 0x3d32e450bddd65fcU, 0xbdf9280cbd93b2fcU,
  0x3f0d6c143eb01f08U, 0xbde1e8453e0d9349U, 0x3de9fd263cf18c28U, 0x3f22101ebe628a10U,
  0xbe890fe7bf3a0731U, 0x3dc081613f0fa8d9U, 0xbe7c0ae1bca65740U, 0xbebb3c6abe7fc349U,
  0x3e0d2d0cbe084472U, 0x3f0acee63dbf2e2aU, 0xbecef048bef5c726U, 0x3f826978ba43fecdU,
  0x3b9671fe3e2af2d5U, 0xbe8a0ed33eb79b58U, 0x3eee4e6bbe845e97U, 0x3e1c0cd5be8066faU,
  0x3f50666fbf217c30U, 0x3b4ed1ab3f11d1c9U, 0xbece4b14be91bf17U, 0x3e9bde5cbea9c3a2U,
  0x3eafe4d63e48b4d8U, 0x3eb463553eb95c59U, 0xbf1085973beaffbfU, 0xbd0f51c6bf7b7054U,
  0xbeeb12933df737a8U, 0xbf1f4be23dbfbd08U, 0xbe245edebc00e919U, 0x3e5a2629bdc3916cU,
  0x3f59e8f5beacc31bU, 0xbef32b2a3dd5c470U, 0xbe4aa598bd9384f0U, 0xbec6fd36bdffcba4U,
  0xbe9185da3e69e4a0U, 0x3f0349223e10d696U, 0xbf4ac4213e84b91fU, 0xbc64ac803f14282bU,
  0x3f1083913e1d20f4U, 0x3c6f59223e0e9c39U, 0xbf8d57193e288a54U, 0xbf18e2b23e7c94ebU,
  0x3f1f28f53e8b4892U, 0xbeb4de293f01bafdU, 0x3edc2260be82c7e0U, 0xbf91e5b43e851c5bU,
  0xbbbf96593c786b01U, 0x3e3ae7babd16fcb8U, 0xbe455a87be4b7aaaU, 0x3f684f66bf27b3cfU,
  0x3c9fab353f66de14U, 0x3cbe6cfd3e1237c4U, 0xbe6c3a45bf41f792U, 0xbf79c4033edc38e8U,
  0x3e58472ebdec43eeU, 0xbd99b954bd466f58U, 0xbdb1587c3c56eac0U, 0xbe4829bcbe0ff044U,
  0x3eaf4474beaa1bd7U, 0x3eb1ab5ebe4a72c0U, 0xbdefd72fbe13be87U, 0x3ead8a033ed0690bU,
  0x3e87f389beaad45fU, 0xbd5762b43eee71edU, 0x3f1866423ec285c9U, 0x3f09353cbedaeafaU,
  0xbd42ae58bf16f46dU, 0x3dc632ba3f29c3e6U, 0xbea79ccebe84447eU, 0xbece47bfbe8ed6bcU,
  0xbdcec374bea14a58U, 0x3ef418de3ec68aafU, 0xbec8d310bef7c494U, 0xbe2d322f3e58f1c3U,
  0x3e488a10bd4de450U, 0xbd3655b8be417a13U, 0xbdc5ce3cbd118df0U, 0xbe44ea9abf504f18U,
  0xbe0265e8bedbd73bU, 0x3e32a46a3f1357a7U, 0x3e0e275fbe55a638U, 0x3e9aafaa3e90947fU,
  0x3e326d583eb583c9U, 0x3d894b46bed60b6cU, 0xbde065e63ec6c5c1U, 0x3ed4aecabe634308U,
  0x3d0af19bbf77a373U, 0xbc90582fbf12a2c5U, 0x3e6403313dded256U, 0xbe5082cf3e88a919U,
  0x3dc854d2befe0fbcU, 0x3e0efd603f41d8d7U, 0xbd591060be73669fU, 0xbe49ace1be9a16a3U,
  0x3e63a46c3d976a3cU, 0xbf15ff4e3f060887U, 0xbf2ae7ab3f00e656U, 0x3e6842dd3eb97859U,
  0x3f037557bc8b8067U, 0xbe2ef26abf05e095U, 0x3d0c569f3e68bd45U, 0xbe4d1ea93e1290b1U,
  0x3ea89b133eb7cafbU, 0xbe885eb13e30844bU, 0x3ce684653c3bfee8U, 0xbdc0a8f13e88e4f2U,
  0x3f100e5c3d8fbb00U, 0x3c96e4703d97b59eU, 0xbed54b04bdcdc348U, 0xbe2f76f4bec4891aU,
  0x3e25ca61bea8cebfU, 0xbe8d6133be0e1f94U, 0x3e2371b33eee1e8eU, 0xbe4a61ab3f00baabU,
  0x3e10eb52bd1d5d44U, 0xbe8f568fbe8b4454U, 0xbe404ce93e251516U, 0x3edbc41fbe9cb224U,
  0xbd53e5f43f098207U, 0xbed30491bd919328U, 0x3e46bb80bc2acb0cU, 0x3d0d32db3e9102d7U,
  0x3e8ba2f9bdd2674cU, 0x3e9b5bb2bea67749U, 0x3d032c9ebe1f72c6U, 0x3dd12088bda539a4U,
  0x3ef21177bdfcaa74U, 0x3ed097643dc25dd7U, 0xbe29f0b13f1fe769U, 0x3ef4fa77be987bfaU,
  0xbdce84f43dbd84c9U, 0xbdfc72c6bc769bb1U, 0x3c98533dbdd18fb6U, 0x3cacd1fe3ce0c1a2U,
  0x3de1124cbd0b592cU, 0xbd9af0213c443dccU, 0x3cca286ebbe7e3e0U, 0xbdc48efd3d334c74U,
  0xbd82cc1b3d3fe46cU, 0xbd8bd440bde2f8daU, 0x3dd5c6953df6e388U, 0x3d81844f3de53e78U,
  0xbcbec07e3db642d8U, 0x3d7fd2fcbd97dcd6U, 0xbdb8711fbd8fbe8fU, 0x3cd6e558bd39ae4bU,
  0xbd5cc4003d6ff06cU, 0x3c8a2168bd96ac48U, 0xbdb5ba6fbda1dbdfU, 0xbcac04283d8570c4U,
  0x3dddb5603ddefafaU, 0x3d3035703d19245cU, 0xbb637a1f3c9ce7bbU, 0x3ae12f00bc14f4c0U,
  0x3dd96a333d1d5b02U, 0xbd6e7240bd04b080U, 0xbd775c10bd1216a3U, 0x3dbf173e3cae1ea0U,
  0x3d6b12803dc82facU, 0xbd94a4f4bdc78dd7U, 0xbcbd0357bd066482U, 0xbdf610f33c287180U,
  0xbdc2eb5f3e69865bU, 0xbdb652b23fd4661bU, 0xbd17f3c63df57c41U, 0xbdb712d03d9e789aU,
  0x3ded50dabcedc2acU, 0x3fce59573f2dc9c9U, 0x3eaad9723fade22fU, 0x3fc194103ef8ff8fU,
  0x3f6944143ec31e1bU, 0xbd764e64bd97ab44U, 0x3fef1a98bc830300U, 0x3f1738aa3dabfe54U,
  0x3e08e526be8b6b17U, 0xbeecd347beb7b76bU, 0xbe87cd0fbd9fc7b4U, 0x3cb639883a74e8c0U,
  0x3f8c89b53e134b83U, 0x3c37069c3d944418U, 0x3ef4d2c83e5d8809U, 0x3fa1cecabce50640U,
  0x3d6eff75bf256c7eU, 0x3ee738d0bcdfb600U, 0x3beb8687be8c4abcU, 0x3f17566f3f13bc86U,
  0x3f5d33613fd2aad0U, 0xbdede9e83bdb3ac0U, 0x3f7d80efbe2e393cU, 0x3f6a6aa0bde1997eU,
  0x3f995bd0bdebaa54U, 0x3bc5293abdb6072dU, 0x3f73a69d3fdc580bU, 0xbd8c44a53dd5847cU,
  0x3e81489c3daf0cd0U, 0xbd978f373d989ef7U, 0x3d71d2d03d857c6eU, 0x3e751ac63e49b82dU,
  0x3e59ab54bd61a52bU, 0x3dc4346dbf83f865U, 0xbf3a6c98bf1529f9U, 0x3eb602e73f147982U,
  0x3f3200343d522f49U, 0xbdca832abf843dceU, 0xbc24a0aebc23ffc0U, 0xbeaf06633db2a986U,
  0xbe985354beb58f91U, 0xbfb31db0bda73f25U, 0xbe8ee8253e1e4a83U, 0xbca722c83da750b1U,
  0xbe6c8ffb3e841e3fU, 0xbfba0b243da2e218U, 0x3d8bd8263db8db33U, 0x3eb564053d351a74U,
  0xbe65c8083e909533U, 0x3f1eb9aabd2af308U, 0x3e0142adbf7e5acbU, 0xbf605e8ebe2c5cfcU,
  0xbf2a6e93bef46ffcU, 0x3e152724bc7df8c0U, 0xbe95126bbbc31e29U, 0xbf0ce8fabda944f0U,
  0xbdca6da63d448fd0U, 0x3e2ded213ddc3d65U, 0xbe376686beefa64eU, 0x3e253290bde029beU,
  0xbe13451e3e3ae7deU, 0x3dbf1c1a3fc66a39U, 0xbe1d291abde5b306U, 0xbd0988e53d317136U,
  0xbce9ca2e3eebd74fU, 0x3fbf49d63fd1f292U, 0x3ff71e573f7e3c51U, 0x4001022c3f1f6ee9U,
  0x3f864eff3f874f3bU, 0x3dcfa132bd861169U, 0x3fba6e71bdbdf2e2U, 0x3e8bc5aebdfb9838U,
  0xbd38e53c3f73927aU, 0xbdc3bdda3bb57730U, 0x3e06e886bca21849U, 0x3d632174bc5a39fdU,
  0x3fe5cb073e167315U, 0x3fb1c382bdba281aU, 0x3fa5e4e1be1cfe93U, 0x3f994cd7bde8ae4eU,
  0x3fac807ebe903bd7U, 0x3ff9cb28bd951bb4U, 0x3dee8dcc3e21827dU, 0x3f0546843fc02836U,
  0x3fc1b09a3faf4795U, 0x3e7b05f53d216824U, 0x3fed33513dbfdb11U, 0x3fe9bc603cc85908U,
  0x3f90eb8a3dcd39bcU, 0x3dc815aa3d7b6173U, 0x3fa2ff733fa43246U, 0xbe8d80ebbd745400U,
  0xbe325ecc3e7a3e7bU, 0x3d5eb4a23e9f53eaU, 0x3dafda7cbdc87b68U, 0xbd4e1b74bda1ebe1U,
  0xbd8e3d913ee9cfafU, 0x3f42bbfd3ff2c4a5U, 0x3f9994f7bf988112U, 0x3fb404593f2d0dccU,
  0x3f84ad493f4c3643U, 0x3dcacc40bd0e9a67U, 0x3de47480bd3fc180U, 0xbf98ef203d362ac8U,
  0xbf60ec713f6baeffU, 0xbec6c7f5bd913dd7U, 0x3f1220323d75534bU, 0x3dd288543d63064bU,
  0x3f7667a6be0fde1cU, 0x3d71a3873d835318U, 0x3fa2d4983b583f7fU, 0x3f5726ad3d28be04U,
  0x3fb23bad3f6eb320U, 0x3fa6ee3e3db31044U, 0x3e827d2ebe809788U, 0xbeffed133fc949d4U,
  0x3fd780ee3ee42cbfU, 0xbcba8f063dea4cb2U, 0x3f882f2abd0fe662U, 0x3f945880bdb0bb30U,
  0x3e7c10ccbd7fccf4U, 0xbde564cd3d26787dU, 0x3f7c8b4d3e0ffa46U, 0xbe6e0bbc3d080670U,
  0x3e1fbf88bd4465bfU, 0x3d1077873f5649f2U, 0xbe31dfd6bdb1e77dU, 0x3d1a85643d568f6bU,
  0x3d1b62943f26e6d8U, 0x3f78657a3f2e0a70U, 0x3f78dde6bf3b2b27U, 0x3f8e4e7f3f99d0ffU,
  0x3fafbf083f9dd160U, 0x3cf442f8bf775a41U, 0x3f25e586bd8232d2U, 0xbebe86bbbd678d0cU,
  0xbf0d04fd3f43ee78U, 0xbf7a33003d754afcU, 0x3ea546e5be0400d9U, 0x3dfa16c4bd983129U,
  0x3f458b023d73ac47U, 0xbe7baf87bde495e0U, 0x3f6abda8bdc5bb9cU, 0x3fa61f9f3c95bb78U,
  0x3f57eadb3f82b39eU, 0x3fbc999abd7bf518U, 0xbd40b8fb3d40b3dfU, 0xbec4a9c83fa821d5U,
  0x3f77fb7f3f35c516U, 0x3e01c4efbd05bed4U, 0x3f6383a43daf086fU, 0x3f3cee29bd917a66U,
  0x3eac229fbd140a04U, 0xbd3349583dde551aU, 0x3f3b56f63e80d097U, 0xbde45aef3d9aa6e8U,
  0x3db7291ebf05c281U, 0x3d9d779cbf490665U, 0xbe1cc698bd94f39dU, 0x3ca072e83db47e95U,
  0xbd9e8de53f0049acU, 0xbe91b91840068e70U, 0x3fb5faeabf9aa760U, 0xbf544dec3f56cb0cU,
  0x3f8240a43f2f576fU, 0xbd49b61c3efa15b9U, 0xbed8ab6cbdefb6f8U, 0xbf6b39cdbd7daca8U,
  0xbe333c89be8e4727U, 0x3e84453d3ec7b10aU, 0xbee825ae3e802f4eU, 0xbd72f11c3e1a2afeU,
  0x3f2de6aebde90728U, 0x3e6ada643dc659f8U, 0xbe6b3279bc6da74cU, 0x3ee03298bc549740U,
  0xbeb0afaf3fc5e434U, 0x3f90bf73bcd4a278U, 0xbe3054843eb9c2f5U, 0xbf473b123faa5c14U,
  0x3fe671e2bf29864eU, 0x3d9c1ffb3ca34a90U, 0x3eb6371cbc3b0ccbU, 0x3f5ee5da3dc4ce80U,
  0x3e4e6af6bdd8bc1aU, 0xbdbda3c9be3d7edbU, 0xbe7c90b2bd8ed78fU, 0x3e6f602e3dbac906U,
  0xbd528c14bd35ceecU, 0xbd45e3b8bcfd9310U, 0x3d8796d63de63378U, 0x39d14c003de7296aU,
  0x3d318b243cce82d0U, 0x3c36e120bdf2514eU, 0xbd8f8706bc08fda0U, 0x3de2a158bdc6a47cU,
  0x3d6d4bc43dd02518U, 0xbd4fc60c3df449b6U, 0x3d41da4cbcb0de38U, 0xbcc8f1c8bca93128U,
  0x3d098df8bdd39988U, 0x3b94f4c0bd9ab530U, 0xbd1d99f83df99800U, 0x3d9a72b6bd2160d0U,
  0xbc2fe080bd3c3d0cU, 0xbd51e8143def097cU, 0xbd8f44d0bdb72520U, 0xbd72f180bd0df324U,
  0x3d4ed1d0bd84d8b6U, 0xbd23df1c3cae0428U, 0xbd213550bdc6e3aaU, 0xbd269d50bd581584U,
  0x3cdc9970bde6f188U, 0xbdc75f62bdbc16d8U, 0x3d55b350bdd12916U, 0xbd535414bd9a1e6cU,
  0x3d87ed463dc8a9c8U, 0xbdf312dc3d92c9c4U, 0xbd414920bdb793daU, 0x3c5182e03dd37b22U,
  0x3a4d3000bdbf7630U, 0xbce05b90bdc6d3e6U, 0x3ddd9c00bd0cc988U, 0xbcb28e583d1e95d0U,
  0xbd13cbf83cacfba8U, 0x3d4a87583d492a3cU, 0xbd4790d83d097ee0U, 0xbc93d5b83dda6816U,
  0x3da0561ebd475484U, 0x3dfec2ca3dd0a78eU, 0xbd2e89a43d17af2cU, 0x3ddba2e83d820536U,
  0xbc7db870bdfb17f2U, 0x3cbed518bdae954aU, 0xbcd38bc83d53c164U, 0x3d6674ecbc2b5470U,
  0xbdd6fbcabcac1a78U, 0xbd80d9383dccd5b6U, 0x3c412e30bc60fd80U, 0xbdf0d0ccbbf62820U,
  0xbd6891083d6ae7d4U, 0x3cf4a640bd84c6e0U, 0xbd6ca030bd8598c0U, 0xbd4058d0bd2c84b4U,
  0xbd0a1444bd55d494U, 0xbdcf28e83d050e70U, 0x3aef1100bd9af3a6U, 0x3d8d630a3c8e67e0U,
  0x3d236dc8bdb3d35eU, 0x3d8e25883d9181feU, 0xbd4361a0bdee71a4U, 0xbda1ffeebddc0c7eU,
  0xbce7620c3e3d30e9U, 0xbd6f82e43fbc8aa9U, 0xbd0873bc3cf13723U, 0xbe02477a3c6f51cfU,
  0xbda13b65bd9a3175U, 0x3fb59d413f2fe44bU, 0x3ed33be23fa7d325U, 0x3faae2253e425c81U,
  0x3f3b50553e01fdf2U, 0x3cd7a6c03c66bd02U, 0x3fcb4aa3bd4ec2acU, 0x3f22f85a3ca8d8d0U,
  0x3e01e518bde7409aU, 0xbed48e0dbcd54f61U, 0xbe8a8d6fbdb94f07U, 0x36ca00003e0dbebaU,
  0x3f531ad6bd361e5dU, 0xbcd64918bd0637ecU, 0x3ed93e77bd4507b3U, 0x3f89584b3ddafebcU,
  0xbe04e881bf232f8bU, 0x3ec638d6bd9e7498U, 0x3dc3e857beb87050U, 0x3f101ce43ebb41beU,
  0x3f32e7e73fbe50e9U, 0x3da793b2bd372dc0U, 0x3f53fe5fbdc7317fU, 0x3f6d387ebdded126U,
  0x3f9c766ebd869f9cU, 0xbda64d3abd8f4610U, 0x3f57b4f13fdb8b0bU, 0x3d49c7853de926e0U,
  0xbe0c503ebda1fa78U, 0x3d8f70bc3d04c89fU, 0x3cfe8b5abddbc772U, 0xbbd83efb3db75ba6U,
  0x3db637e7bdb64f70U, 0x3d982fdf3d221f3bU, 0x3d639728bdad396bU, 0x3ddf11d0bdca2c08U,
  0x3d78a321bd8f8361U, 0x3d07af743c2db5f2U, 0x3d524953bc9d0918U, 0xbe09b1aebd556320U,
  0x3daad000bd44b644U, 0x3cb8a2b8bd40d196U, 0x3dc009c8bd72086bU, 0x3d34be343d7a9bcdU,
  0xbdd12f6cbda3a19aU, 0xbd962f343b9a3640U, 0xbdf602823db57468U, 0x3de24f1d3d64cbecU,
  0x3d2e94c43d490b09U, 0x3dd51097bdf64f3eU, 0xbe05ccc0bcf4a1c0U, 0xbd5059383ddec8a9U,
  0x3dcb0631bcd5c465U, 0xbdcf1da8bdb1759aU, 0xbc8911003ca5d7e5U, 0xbde80a9c3cebdeb8U,
  0xbd63b78c3b74fec0U, 0xbe021066bd7c8888U, 0x3cc542803d87bc64U, 0x3daf2f21bdd86ef8U,
  0x3de606de3e08bd13U, 0x3b81b6a1be625447U, 0x3df1d8c03dde453fU, 0x3e958c6c3da7e6cfU,
  0x3dbe08c73f88e7dbU, 0x3ca60dfbbf3efbfbU, 0x3f335eb9bf5d68d4U, 0xbe9228383f05f51fU,
  0x3e5b88633f5e8b4eU, 0xbc7503603db1ba3aU, 0xbef85233bca1c470U, 0x3f2486823dfc85f0U,
  0x3f12d7043f26d6e7U, 0x3f778eea3e4f69e4U, 0x3f0eb8b7be8d9505U, 0xbdce38fabc83147fU,
  0xbe0eec993e7ebcc3U, 0x3f90125abb165240U, 0x3e5aa8613e3276e4U, 0x3f175ec9bd29ccf8U,
  0x3f1a37503f106f5aU, 0x3f349619bdc5b09eU, 0xbe2f98d63face70aU, 0x3f6a777c3ea72c65U,
  0xbefb41c5bd55f1f2U, 0x3e56f001bd393694U, 0xbe0b49813de53cd8U, 0x3e59ec003d54d650U,
  0xbec593133dc3fc00U, 0x3d3ae9dd3e60146fU, 0x3dfc2fa5bf1ee759U, 0x3df75afbbd7cd77cU,
  0x3d028ddd3e05fd89U, 0xbcebf8403fb0919bU, 0x3d6c6c1fbdc81077U, 0xbd68831a3d5b56e7U,
  0xbdc8fc043d648758U, 0x3f8d88753e769a8fU, 0xbc83e18e3fa3a52dU, 0x3f056363be24e461U,
  0xbc9beb3e3cf1e57eU, 0xbd5c13743f2706eeU, 0x3fa3371ebce65800U, 0x3fce10b33c5f2700U,
  0x3f66e7ccbee88319U, 0x3e93ccf33c505efaU, 0xbe803d7bbdad863bU, 0xbc5ddf30bda83f74U,
  0x3f0f494dbc6c6df7U, 0x3f70476cbc6e02a0U, 0xbea42aa53da78216U, 0x3f37c6dfbd16fa50U,
  0xbf12b54cbf61c82eU, 0xbf38b2333cfda9b8U, 0x3cac91abbd71bddcU, 0x3f914d80beb0dda8U,
  0x3e119e87400be745U, 0x3dc887bbbd8ed224U, 0x3ed24a92bd0856fbU, 0x3f373a0e3c19df90U,
  0x3f9e18d1bd199478U, 0x3e02a19abe12db06U, 0x3ec8fe833ffa583bU, 0x3d6ab30e3cad8f20U,
  0x3dfa18aabba6dc0fU, 0xbdacf7243e7ebef1U, 0x3e528d94bdcf170bU, 0xbd87f8313e559966U,
  0x3e67b23ebecb3f38U, 0x3e8d3e3cbf4eaca6U, 0xbf96886abe0af6c5U, 0x3f16d1973f33d72bU,
  0x3f7b3f56be8c9bf1U, 0x3d8bc922bf886d3bU, 0x3ea5f5ebbd7e5e48U, 0xbf09a007b93e4800U,
  0xbeef9911bf1d0ba9U, 0xbfd5815a3d8df2c2U, 0xbec2afc53ebbcf8dU, 0x3dee7c523e276afbU,
  0xbeb360ea3de16c46U, 0xbfde39e33de5ec0aU, 0xbc1e59ce3d2013d3U, 0x3f02e9e5bdc2f23eU,
  0xbee9064d3e0eb8f9U, 0x3ee7d42d3c4436c0U, 0x3d802f27bfba6a59U, 0xbf9010babcf2325dU,
  0xbf00d46fbefc5758U, 0x3da4e4fabdbc7276U, 0xbe4bbb4d3e1c4a8cU, 0xbf0f5155bdbb2bfaU,
  0xbd21d2073d85b694U, 0x3df2ba8c3e60b5acU, 0xbe49c5e8be1a8a6aU, 0x3e50fe163c9359b0U,
  0xbdac445fbb7a1729U, 0x3d2e2878bd667c38U, 0xbd083398bde077b2U, 0xbd83ee69bc87845eU,
  0xbbbb41a73d01de21U, 0xbc35e2d03d97fbb5U, 0x3db4e094bda1924aU, 0xbd49df7f3b710b00U,
  0x3c7e50d5bdc4f4e5U, 0x3d06d974bdf42920U, 0xbde090363d7d27dcU, 0xbdb80b86bda7989cU,
  0x3dd9a1823dd72b70U, 0x3dd41fcabbc2dab0U, 0xbdf887cebd6310dcU, 0x3d3562b03cf4bb38U,
  0xb817c0003ddec467U, 0x3d80b3fa3dc4328aU, 0xbdfe097a3d9d0de5U, 0xbdf672c13dd2ce24U,
  0xbba9bda03dc95885U, 0x3d0e622cbde2df20U, 0xbe010cfdbcd06e90U, 0xba6a2b7bbd71fe3fU,
  0xbd55a12d3dab3483U, 0x3af600c53d980e48U, 0x3cc3eff0bc1cb1d6U, 0xbdecf7f1bda8013aU,
  0xbdee8dfcbd20e058U, 0xbc03a009bd93962dU, 0xbd546024bda89a9eU, 0xbce6eb42bcb7ffb8U,
  0x3d4fa57dbdaaf756U, 0x3d126e04be80e79dU, 0x3b31169f3c951318U, 0xbd044eb73cc26eb9U,
  0x3e54fd7cbe58cc89U, 0xbed1d6893f98c3beU, 0x3f4c9ba03fbbc4b0U, 0xbf15b7bc3f02ee45U,
  0xbbfeebce3df58b39U, 0xbd25c9783f9f3a20U, 0xbed2e719bd42468cU, 0x3f8d4d703deb3e60U,
  0x3f63d63f3f2a453eU, 0x3f4c4db0be24db42U, 0x3f1110493ed89debU, 0x3d363728bde0c204U,
  0xbec79d8fbde86510U, 0xbfa938edbcd5ada8U, 0xbe91d927be7a2a65U, 0x3e1fb7b03d68549cU,
  0x3ee74d2a3f6c17bcU, 0xbf48a4c73b05cfc0U, 0x3ebc73843faabd70U, 0xbe96f1f13f250a3bU,
  0x3f48203c3e9bd49dU, 0xbe2af2263dcab63aU, 0xbe9f4293be9a0deaU, 0x3e3d37643bff0080U,
  0xbe8661babd568a18U, 0xbe29db493d09c78dU, 0xbe78e24bbc721847U, 0x3ddcc7d53c81b760U,
  0x3e905c783d91c249U, 0x3d0e9d2fbf18666bU, 0x3e7501aabceed762U, 0x3dafa4273e2e7851U,
  0x3e9266cbbebb60e9U, 0xbf07babdbf3f36e4U, 0xbf8ddae3beba6dcdU, 0xbeff82ee3eabe4bdU,
  0x3efc1e45be7ddc0dU, 0xbd8fa824bf7fa8c6U, 0xbf0c1a6cbd653828U, 0xbf9743d0bdb37066U,
  0xbf34b3a0bec4e333U, 0xbf99e79b3e861fd8U, 0xbe47371c3f18af51U, 0xbd992b7c3e469a25U,
  0xbf3984373e1cbd4bU, 0xbfd4e0db3d717f1cU, 0xbd6023b13dde0e30U, 0xbe4e719dbd6b0fc8U,
  0xbddf46f73f156b98U, 0x3e96e5333c873f98U, 0x3eb93e28bf9a5be6U, 0xbfb19e1dbd737e31U,
  0xbefc47ddbfb8a042U, 0x3e840cd53d9a08c0U, 0xbf2e41713e1002bdU, 0xbf5a15d3bc4bc4a0U,
  0xbefcf1f13caca7e8U, 0x3e595c813e847ad4U, 0xbed35efbbf479404U, 0x3e342528bc449860U,
  0xbddecf683d88189bU, 0xbccf528dbf5c3b7bU, 0x3e1470dcbd0089c9U, 0x3e0f81b73ba6691dU,
  0x3c5c7c353f80c54eU, 0xbf117d774002a632U, 0x3fbb8617bf505a82U, 0xbf0572fa3d2e6ff5U,
  0xbf1cfb163f44cc2eU, 0x3cd075603fc39746U, 0xbf81f10ebd2ebdfcU, 0xbed8aa4fbdbb7f44U,
  0x3e48e05c3faddf94U, 0x400016e43e7c1698U, 0x3f4a5128bcf22b09U, 0x3d245a4cbcc19cf1U,
  0x3e4be725bccd27ecU, 0x3ff404e03c81ba48U, 0x3f11453fbde9dff9U, 0xbf0fd7f03cf19638U,
  0x3fbcd07e3f6e8b10U, 0x3d1f8faa3a949680U, 0x3dad21cc3fe1f51bU, 0x3f8210ae3f7fceafU,
  0x3fc459b3bec5b453U, 0x3d4ea7563c043d80U, 0x3e5c9e7c3d6e68e8U, 0x3f0dcc67bd71f314U,
  0xbed5d2ca3cfa6e58U, 0xbe6334b23d877a0cU, 0xbc3006d7beb0b6e7U, 0x3d3901a0bdae2912U,
  0xbcf96b563d1afe2aU, 0xb9a96b62bf2e94dcU, 0x3d96de763c934b4dU, 0x3c4f8724bdb4c662U,
  0x3daae6c13f578169U, 0xbe0ca8f13fd125c5U, 0x3fcb5fbebfa96964U, 0x3f0547ce3f2b2bccU,
  0x3e7608483f597abdU, 0xbcdd4ce03f326d71U, 0xbf4d350abdc2e4d8U, 0xbf87f6173d840cdaU,
  0xbeff403a3fa70fa3U, 0x3f89f70d3d381362U, 0x3f5a25be3d9de451U, 0xbd92cd1c3d3c0968U,
  0x3f1fba47bd18138fU, 0x3fabf481bdb5ead8U, 0x3f8ee279be7072f1U, 0x3e1925313d9ef910U,
  0x3fbc50253f7f39c4U, 0x3f883ed1bda0df18U, 0x3cf4efb83f81dd10U, 0x3cc577713facb5f8U,
  0x3fb5467bbe99e1b0U, 0xbbf19919bb8af6c0U, 0x3f03f9c83d44f825U, 0x3f2898203da3d9a2U,
  0xbe891fb43d99c342U, 0xbe2dbaa93e05f1a3U, 0x3f0128a5be25e9c3U, 0xbdfc83b83da626d6U,
  0x3d3990213d57e80bU, 0x3dddde1d3ffa17cbU, 0xbd1bad7a3d1a6c9eU, 0x3de13ea53c2f8002U,
  0x3d7447893fa954f5U, 0x3feb98b63f1884a1U, 0x400e41933f8ac921U, 0x3f9d3efc3f5547d9U,
  0x3e9d394e3fc28e30U, 0x3dc4d8603f9e4edeU, 0x3f93accc3c9e1e30U, 0x4015af64bdee975aU,
  0x3fddb9873f422a1eU, 0x4002ce4fbdf3e914U, 0x3f23414cbe96bb15U, 0xbd8e1532bc18e987U,
  0x3ff811cd3e203d3fU, 0x403a6475bca6c800U, 0x3f5810d13c6e396bU, 0x3fd4dd033dfad1acU,
  0x3f51becfbf36e8a4U, 0x3f94fa1a3dcdc5a4U, 0xbd99b9004020e7f0U, 0x4023feef3f6c044fU,
  0x3f48704d40278a6dU, 0x3cb534073db2c23aU, 0x3ff9302a3dfa24b2U, 0x3ffbf0cc3da49022U,
  0x3f8e0a383c0fa4d0U, 0x3c1b54c9bd1e8dd6U, 0x3f932d933fb86a3eU, 0xbe1f76683daba7b6U,
  0xbd986ed23c80232bU, 0x3ddcc764bd879a38U, 0xbd2d96fb3d774cf8U, 0x3c83486c3c273b0bU,
  0xbd50d01b3cacc4c2U, 0x3d98bb3abda78980U, 0x3d34d2c23c8998f8U, 0x3d5670c9bd6379d1U,
  0x3d8ae8ea3da986deU, 0x3dfbdfc03cd34b20U, 0x3cda01b0b98f5400U, 0x3de806203df33bb6U,
  0x3dd5d2e2bd582d3cU, 0xbcb5bd493d1b653fU, 0xbd849d903dcebe3eU, 0x3dfdae843d958d6eU,
  0xbd971054bdc156bcU, 0xbcb84810bdfdac8cU, 0xbd2b7ae4bdf94815U, 0x3da42d763d1b70d4U,
  0x3d8e19c83d7ba2deU, 0xbdaf8f0e3d546908U, 0xbb457bb0bdcb4340U, 0x3be6a0e03de24fbfU,
  0xbdbe89dfbc9b31feU, 0xbdd61e54bd7dde84U, 0xbca6d7083dccf89aU, 0x3babac9bbde22712U,
  0xbc7d07103c149ea0U, 0x3d71c7ab3d37470cU, 0xbdc41e96bdf0beb8U, 0xbdfe218ebbc4c580U,
  0x3df7fc5ebc67bef4U, 0xbd401b523fd33e87U, 0xbd9761bfbd0093f9U, 0xbdcd5ef23da50b1eU,
  0xbd97be09be566fecU, 0x3fae7b053ee43057U, 0x3da896ba3faa9e41U, 0x3fa217103d27849dU,
  0x3f057ace3e314c26U, 0xbdc2b1003d87ed01U, 0x3feef938bd701348U, 0x3f8fa6033aabc980U,
  0x3ed1278dbeeefe50U, 0xbec9f67ebe8c8444U, 0xbe904876be15a282U, 0x3d17184c3d4dede6U,
  0x3f42dc883d961530U, 0xbdad69fa3d9e674aU, 0x3deec5583d0834c7U, 0x3f7c1b3c3d17f384U,
  0xbf1896bbbf5aa928U, 0xbddc447f3d9babe6U, 0xbce1d5dcbf085ec6U, 0x3f1979623dba57b9U,
  0x3f004eb03fd35fbfU, 0xbd564fea3d9094eeU, 0x3f4a3559be3bb52dU, 0x3f5b05273d86a0feU,
  0x3fa488cb3db595a0U, 0x3c653d703d5dd662U, 0x3f3c3a764001cfc0U, 0x3d9a3b363d22289cU,
  0xbe0173eebdcb27a7U, 0x3da0b990be0138d1U, 0xbdc7c22c3d335bd4U, 0x3dcea17a3d355694U,
  0x3d9a5bf8be09e40dU, 0x3c3e81c03c0b9b1eU, 0x3dc6e3893de658d8U, 0x3dca46483d22d20eU,
  0x3c459ae63d550128U, 0x3cbf43f8bde106deU, 0x3d1da0a4bdb62158U, 0x3b380a003cb4ab18U,
  0xbdb40c16bdbb54aeU, 0x3d795a903da32495U, 0xbd18906c3d4ec9f3U, 0xbd0336d4bd16958fU,
  0xbd8e1a573d8fb088U, 0x3d9f7f6f3da13ed2U, 0x3a481a00be053550U, 0xbdb1e632bcc30640U,
  0xbc78d2603d1908e3U, 0xbdac87ab3de0214eU, 0xbdf45a443d4bdd74U, 0x3c0bb340bda0c233U,
  0x3d6ba6d13dca438cU, 0xbad0fab2bdd232a8U, 0xbc2468afbdb1249bU, 0xbd383978bdd5444aU,
  0xbdf643383daf94f2U, 0x3c0102aebe0884eeU, 0xbcbb46583b6a196fU, 0xbdb774fa3ddf8ad4U,
  0xbdbf5a98bd9b699cU, 0xbd02aa38bcbe96e8U, 0xbbe5fc803d9e6632U, 0xbd54c3d83d238250U,
  0x3dd7d0143dcfaa4eU, 0xbd039574bde54402U, 0x3d5982e8bdd93720U, 0xbd721464bddfa9b4U,
  0xbdf475963dffc9c4U, 0x3c2d03603dbce0c2U, 0xbd81ead23dccb4dcU, 0x3c7719503da825eaU,
  0x3daeba6e3c1d8440U, 0xbdce320ebdf355c0U, 0xbd99ba243df73c46U, 0xbbc845c0bdb886daU,
  0xbc8c1868bd23e478U, 0x3d38bd40bdab842cU, 0x3c25dfa0bddc4886U, 0x3cc4bf503d9562d8U,
  0x3c95c6403c880f08U, 0xbcc311f8bd15fd9cU, 0xbdacef70bd57e830U, 0x3dfd124ebd878a70U,
  0x3d335a00bcab5f80U, 0xbc1ffc403db109b0U, 0xbdad7332bd89b8acU, 0x3d36c060bd3c9f5cU,
  0xbc7a0de0bdd797b4U, 0x3dd0dbe23d42c208U, 0x3cca83583d1a1390U, 0x3d6c96c83daf4156U,
  0xbd8f18203db9cad7U, 0xbc466b42bf5a2610U, 0x3cc657ffbc162005U, 0x3df60d1a3cac1a4dU,
  0xbd22798d3f853abdU, 0xbf13c8773fe16507U, 0x3fdb25c3bf32fc94U, 0xbf106ada3ac4fe47U,
  0xbf3f387e3f42ac65U, 0xbd5546c43fb26e6aU, 0xbf690cebbbd3e520U, 0xbda2f6b0bc4e8f90U,
  0x3e79f0643fa4bc90U, 0x3ff5e2483e6d99f2U, 0x3f3cfcd7bdd8bd4eU, 0xbdf1d672bcc6bb21U,
  0x3e1b3e4a3e0ae94bU, 0x3ff0e273bd542ea0U, 0x3f11f574bcbf23f0U, 0xbf06dba33daf9f32U,
  0x3fab2f763f63e2f7U, 0x3de80522bdd03fa4U, 0x3decd1853ff25a5dU, 0x3f9b8a523f94ee9cU,
  0x3fa43420beb3b5f5U, 0xbcd9fe92bcd92160U, 0x3d24667d3c926abcU, 0x3f27b8423d42bc34U,
  0xbef59b683c222740U, 0xbe295de7bd5fa30aU, 0x3d387393be8bd2b5U, 0x3da762a73cba2f88U,
  0x3c3e50ce3d3d5bb4U, 0x3d723378bd40d0d4U, 0xbe04dd763d3b4f74U, 0xbc6edc1fbdba7a5fU,
  0x3d4c6d463cd96cecU, 0xbe0b6ac3bd94bf5cU, 0xbbde0922bbd55e00U, 0xbc7161e13c7201e4U,
  0xbb2a2a5f3da371e3U, 0xbdb241a83da2ef77U, 0x3cd6b6db3d4cd184U, 0x3d637431bd8009b8U,
  0x3dc59d91bdfffe62U, 0xbc9555b9bc26cca7U, 0xbc4fb7973d4b0cd1U, 0x3da2deee3d1a76ffU,
  0x3d7f834cbdf5b6e8U, 0xbd422066bc995520U, 0x3db0a964bace5a8bU, 0xbda2db6cbd8b2a5eU,
  0xbd924a233da20a6cU, 0x3b5497223d24d6a4U, 0x3dafbbf43cb701a0U, 0xbd925491bd32017dU,
  0xbc3c35e83d7b32a4U, 0xbdfd9a3ebc616630U, 0xbd032ad53db84856U, 0xbd88c331bcbc9ba0U,
  0x3d27cebabcca1308U, 0x3dba8299bc7d8b01U, 0xbd0e4e24bc4a9a1bU, 0xbca86d643d907fe6U,
  0x3ea6ef653d3e911eU, 0x3c85889bbec790ceU, 0x3eac86973da040cbU, 0x3e97b36c3ea2f3f0U,
  0x3e80c36cbe005365U, 0xbed47c68bf7fd975U, 0xbf96a65abe92c702U, 0xbf76594d3e4fa39cU,
  0x3e1bb646bdfe3e69U, 0xbc1d5c00bf20ecddU, 0xbef00adabdbf0046U, 0xbebb015fbd5fdff8U,
  0xbec174babeace812U, 0xbf894ec73e9acbe1U, 0xbe8f8b013ecd9b4aU, 0x3d9fa2483ea30f33U,
  0xbf18d09a3e96261eU, 0xbfc1e5fc3c9b1600U, 0xbf0486dd3e9ac3f6U, 0xbef908fc3b229200U,
  0xbf1497cf3e88a367U, 0xbdfdec0b3dfabaaeU, 0x3ea74076bf072b7fU, 0xbf6c30e2bf197723U,
  0xbf73a288bf9acd7cU, 0x3e4f746d3dc74754U, 0xbf3def133e9a5ea5U, 0xbf6d084dbde43492U,
  0xbed7cda03db3ea5aU, 0x3e4bc4643e67cc8bU, 0xbf17cb22bf56d84aU, 0x3e9d86bf3d857930U,
  0x3d5df2973db14106U, 0x3dba68a13fdf3acdU, 0xbd04a9e6bcece400U, 0xbd90d9ccbc39ccb4U,
  0xbd009a353f886a77U, 0x3fc8444cbeff25d8U, 0x3f5781683fa11087U, 0x3f1e87553cb66794U,
  0x3cce352f3f64c42eU, 0xbde0ac0e3f8c4f28U, 0x3fb341043c96c810U, 0x40248d543d073c14U,
  0x3fdb2f14bc67ace5U, 0x3fc619f8be054e98U, 0x3e216dcabf0dfa73U, 0x3dcde8263cfeeb7eU,
  0x3f8ca1523e156316U, 0x401d9ba63b8cc780U, 0xbe911a233e1e2990U, 0x3fb108a7bdc82a9eU,
  0xbef7f7d4bf84a5f6U, 0xbe12f588bcd23948U, 0xbe7dba393fe4781cU, 0x4011332abe9139eeU,
  0xbe136917402687cdU, 0x3e022a55bc0d8120U, 0x3f8c52b53dca48b6U, 0x3fa6d97b3a078d00U,
  0x3faa6d75bca28cf8U, 0x3a428758bbb320b7U, 0x3f2d87d54005340fU, 0xbe11a236bdb0384aU,
  0xbd0eecf83b9fd100U, 0xbdad4a3e3d164e60U, 0xbddd1eae3d51952cU, 0xbd869464bd871bf0U,
  0xbb567a003d77c09cU, 0xbd9234ecbdf605f8U, 0xbded863ebd6cf118U, 0x3d3671ec3c831eb8U,
  0xbd4bbf6cbcbbe190U, 0xbdcb560cba46b900U, 0xbb3ad440bd9be0f8U, 0xbd1d71bc3de36cb2U,
  0xbd497f703d7dc714U, 0xbdf3b2a2bd084b14U, 0x3df946363dd41798U, 0x3da2a798bb2c0f00U,
  0x3d7e51c43dd164a0U, 0xbdf3b5a83d83d84eU, 0xbdc47d86bdf08e42U, 0xbddd6f1c3d202570U,
  0xbd782af8bdc36a8eU, 0x39309c00bdebf392U, 0xbd95cfb23c93bb08U, 0xbd4260d03da79eb4U,
  0x3dc30a40bd102450U, 0xbc6af2903ddbca0aU, 0xbd806d62bdb7c6dcU, 0x3d9610b63c826538U,
  0xbd6217183d7ee580U, 0xbde009a2bdf2038cU, 0x3acd8600bd22e560U, 0xbdca6ba8bd65fa58U,
  0x3e321bfb3d42f25eU, 0xbdee9866bec9d983U, 0x3eb9745bbd2ebf3dU, 0x3e8f3fd93ea54805U,
  0x3e6a12e6bd284c57U, 0xbf47c172bfd4f3cbU, 0xbf9e35313e0b2f7bU, 0xbfb68c57bee77be8U,
  0xbf4ca517bf0a7134U, 0x3dd0153e3eca9458U, 0xbef10e133d94b2d4U, 0x3f584dd5bd25c58cU,
  0x3f1c54b3bf3b5166U, 0x3f161ffa3ec98cd1U, 0xbe16f432bc7c05f4U, 0xbd8d33ea3eb2650aU,
  0xbf53535f3e90f926U, 0x3eb2f5a6bb956420U, 0xbf667b5c3ed03ddfU, 0xbf2f8f17bda1f720U,
  0xbf8736ecbf194fbcU, 0xbf986ee73b1f3780U, 0x3dcfcce63e93c70aU, 0x3f001b16bfa2377bU,
  0xbfbb4d66bf2575e4U, 0x3e4a9e44bce755d8U, 0xbf4514e53ea8b75bU, 0xbf57c7933c839248U,
  0xbed893433bd49be0U, 0x3e42fdfe3e2fb3afU, 0xbf209764be63d8eaU, 0x3ef32af63ccb26e8U,
  0x3dde822abd83d848U, 0xbb9c8da03ddc6986U, 0xbd253874bdcd7142U, 0x3b0750c0bd08ec3cU,
  0x3cbdc5f8bde81a4cU, 0xbd0317d4bd54efc0U, 0xbcd83380bd8438d6U, 0xbd87b916bdedc0eeU,
  0x3da7c02a3c3cac00U, 0xbdc1a7123de8a3b2U, 0xbd904e5e3d56ffe8U, 0xbbb45e60bdc5ed9eU,
  0xbddc7aa4bd92da82U, 0xbdab5a6abdef3dc8U, 0x3d8ec5f43dd25d46U, 0xbdab589abd4aac78U,
  0xbd972c6abdc4ed08U, 0x3d99c038bd52afe8U, 0xbd454f803d278e28U, 0xbd9f09243db03d0aU,
  0x3cdf7cf8bdd08f64U, 0x3d11a728bd8d289cU, 0xbd7220a83dd8e472U, 0x3d40b784bdb2a3ceU,
  0x3de465c2bde734a6U, 0x3d77880cbd71cb90U, 0xbdad473cbdcb9060U, 0x3d35f7a03c6198c0U,
  0x3dd61a1c3dc6804cU, 0xbc83a720bbeb9140U, 0xbcedddb03ca944e0U, 0xbdf271c23b8b6e60U,
  0x3eb6b4b1bd1c42a1U, 0x3dab1557bef3ca7aU, 0x3e8717623ba1549fU, 0x3e3a2a063ecbb069U,
  0x3e7a2c19bc865756U, 0xbf1436b0bf7fed86U, 0xbf7cb608bf14cc45U, 0xbf489ce63e0bff2dU,
  0x3c6e6064bd8bbe30U, 0x3dd5a0a6bf10db9fU, 0xbef5e72c3d917e0aU, 0xbe858613bd9a1090U,
  0xbd18ccbbbe28fda0U, 0xbf3e60d53ebcef0cU, 0xbde687863ea931bcU, 0x3dde59423ea848c0U,
  0xbf2b4afd3e7c1e06U, 0xbf885c793df0ce7eU, 0xbf1292443e99d5c9U, 0xbee288a5bd2107d4U,
  0xbe9ba2d23e49cf97U, 0xbe0e739bbdb76e62U, 0x3e8824d93d90de1bU, 0xbf380638bee4ef86U,
  0xbf5f099abf8ab559U, 0x3dfd8bd83d9e1a68U, 0xbf37b1403e2c78b3U, 0xbf2ea538bd71254cU,
  0xbeefb8783da4efe6U, 0x3eb093813e112130U, 0xbf028585bf2c29d2U, 0x3ea12771bd317530U,
  0x3e40ecec3d5ca8fdU, 0xbcb793613ea4842aU, 0xbd43e5233e1a5632U, 0xbd3d148cbc8f0944U,
  0x3b333d2cbdf02e66U, 0xbb8e0a22be0156beU, 0x3e5101a43d129eedU, 0x3e540a05bdcb2effU,
  0xbd885d9a3e3ddc2bU, 0xbd67d6fe3b04c8adU, 0x3e38784bbcc328c7U, 0xbc8130603dd87b0bU,
  0xbde1b0e9bcbffc27U, 0x3db23d283e3033b9U, 0x3e96ec6abc41e760U, 0x3e3294133c14ecc0U,
  0xc007d9043e2672b3U, 0xc034bffb3ee72755U, 0xc0114abfc0060d5dU, 0x3c062ad0bf7c4eecU,
  0xbff81a623d186f10U, 0xbeba1f783d514352U, 0x3f45b232bf7be6ccU, 0xbfbdfc68bdfb0b70U,
  0xbfb9c1fc3f30cb6bU, 0xc04b6401c00b078aU, 0xbfdc3622be39db49U, 0xbd5075e03ded731dU,
  0xbd68cc2dbfbc83e3U, 0xc01eee533f10eb6aU, 0x3eea280abbf4e720U, 0x3ef3ea353d9bf14aU,
  0x3f81f245bdc1806eU, 0x3eee2a9e3eaf577bU, 0x3f254ee93d9124c2U, 0x3e25613bbf965bacU,
  0x3f40df293cd69b28U, 0xba9dd2a03ba15c4dU, 0x3f02e9d63f2989daU, 0xbfc01e653da0d0d5U,
  0xbfb3e6f4be3341efU, 0x3edbb9b4bf38432cU, 0x3f5ca9303d0137b8U, 0xbdc27dcf3e1fd85dU,
  0xbc586e48bfaa0957U, 0x3f1d23fcbe0c6145U, 0xbe9233e43e22fcdfU, 0xbe16f4a5bdbd5f95U,
  0xbeaace333e026fb2U, 0x3eaedea93dc2af0eU, 0x3f5e83363f64b316U, 0xbcc30d503faa7cacU,
  0xbedd4c6bbe15dd77U, 0x3e617df13d595224U, 0xbb7018f4bfaf58c1U, 0xbd81e25d3c3fb78cU,
  0x3f2f1b923db3f685U, 0xbcec12003f944fc8U, 0xbf87c8d63dccff64U, 0x3ca2d360bdc1da2cU,
  0x3d8aabe43f52547dU, 0xbf761fbabdef7ff4U, 0xbf117b7e3b59cc00U, 0xbdd3337fbe1a913cU,
  0x3f1c3696bdda151fU, 0x3efc7947bf3c5c65U, 0xbe2977e33ee5affdU, 0xbcc1e6f83e839d11U,
  0x3f169a613dbb984eU, 0xbeb5cd58bd8b7e06U, 0xbf344d0c3f2a6253U, 0x3f243d93bb7e43b1U,
  0x3ea2372fbf5b2d62U, 0x3f0572943ec1af16U, 0x3f04c840bdd9654eU, 0xbdc49d13be012ae4U,
  0xbd89202f3efa15f5U, 0x3ede78c5bf33c242U, 0xbef619b43d30f16cU, 0xbf462967bdf42547U,
  0xbf97d1083d2535c4U, 0xbf6a9141be4c31deU, 0xbfabfa79bfc3ae83U, 0xbdbfa393c017b916U,
  0xbf8e28d1bbb49020U, 0x3f0ee8e7be260e41U, 0xbf0a0a723e36433aU, 0x3f91206bbc9f01deU,
  0x3f40fcaabe8eedb0U, 0x3f566c3dbe5be93cU, 0xbf825b85bc69a698U, 0xbe0b02223de2e3d0U,
  0xbdd5fec43f8ce003U, 0x3f9f26773d6a12deU, 0x3f07a53dbda0eb03U, 0x3e20fe63bdf99a14U,
  0x3e000b15bd15e8ddU, 0x3cfe9d653daf3d60U, 0x3cfb7020U,
};


ai_handle g_network_weights_table[1 + 2] = {
  AI_HANDLE_PTR(AI_MAGIC_MARKER),
  AI_HANDLE_PTR(s_network_weights_array_u64),
  AI_HANDLE_PTR(AI_MAGIC_MARKER),
};

