/**
  ******************************************************************************
  * @file    network_data_params.c
  * @author  AST Embedded Analytics Research Platform
  * @date    2026-07-23T11:45:38+0530
  * @brief   AI Tool Automatic Code Generator for Embedded NN computing
  ******************************************************************************
  * Copyright (c) 2026 STMicroelectronics.
  * All rights reserved.
  *
  * This software is licensed under terms that can be found in the LICENSE file
  * in the root directory of this software component.
  * If no LICENSE file comes with this software, it is provided AS-IS.
  ******************************************************************************
  */

#include "network_data_params.h"


/**  Activations Section  ****************************************************/
ai_handle g_network_activations_table[1 + 2] = {
  AI_HANDLE_PTR(AI_MAGIC_MARKER),
  AI_HANDLE_PTR(NULL),
  AI_HANDLE_PTR(AI_MAGIC_MARKER),
};




/**  Weights Section  ********************************************************/
AI_ALIGNED(32)
const ai_u64 s_network_weights_array_u64[1347] = {
  0x3ef63f9c3ec14220U, 0x3f45ef14be0f629cU, 0x3e477e10bea8525eU, 0x3e81b56abe2fe04bU,
  0xbf02ced13f0b9a08U, 0x3cd30d263eafe04bU, 0xbe9d3c683f1abd7aU, 0x3de59d4aU,
  0xbd47aa2a3f1e7bdeU, 0x3db593e1be52770aU, 0xbd4615b0be5066d1U, 0x3e830658be39b455U,
  0xbe56935ebea90f42U, 0xbe86ec2ebdfd96e4U, 0xbece72a23cd012c8U, 0xbebb3c703f10fe6aU,
  0x3e16b3c43f0b490fU, 0x3ebd84fb3dad8930U, 0x3ebce0ee3e532fe7U, 0xbe5f15c23ea09f07U,
  0xbdca43843e503671U, 0x3eb735363e6f5a29U, 0xbe6f5a293eae57ccU, 0x3de093ce3ebba3ebU,
  0xbe36fec13e2a5ff1U, 0xbf20e8d6bee32a97U, 0x3f48591ebe5cdb2fU, 0x3e2935183e49bf4dU,
  0x3d433d423eb6392dU, 0xbecea0d53ebb1ab5U, 0xbfa54ace3e8c903eU, 0x3e8226be3e875b7eU,
  0xbd2697fe3d503dfeU, 0xbead47143f3762b1U, 0xbdad4714be990fdbU, 0x3f35f109U,
  0xbdfbba293ede1cbbU, 0xbea6958cbe8190c2U, 0x3ef8067bbf6b119bU, 0x3f6226303dd5af2bU,
  0xbf075557be4050daU, 0xbec7704a3e075557U, 0xbdf008e83eb12b25U, 0xbf3574733e91bc44U,
  0x3c8929a9bf132a08U, 0xbc0736d23d8736d2U, 0x3f39eb613e8b7089U, 0x3c0736d2bf862864U,
  0x3dad80323f00517aU, 0xbf6586ed3be75598U, 0x3ec33038be75caf2U, 0xbe701a09bd30eac3U,
  0xbeb73c4a3e2447b5U, 0xbbca30dfbf489c7dU, 0xbf0ba0d93e11b2f8U, 0x3e91b2f83f21e34dU,
  0xbf807f9f3d0182a4U, 0xbe0b0773be8994b4U, 0xbeb7ec853d853c79U, 0xbe791803be33944aU,
  0xbe1be6333b109a28U, 0xbe8d368bbceafa81U, 0xbe740424be8f78f4U, 0xbf2d9f6bbe611106U,
  0x3d9a54d13f023790U, 0xbd340d9e3f4c2adfU, 0x3e8ffd3bbeb0b6c9U, 0xbe205a02bde512deU,
  0xbecfcd75bead7107U, 0xbe2b622a3f0878d5U, 0xbda509323e985742U, 0xbf4988c43ed7d0f2U,
  0x3e2d614bbcdded2dU, 0x3f5c31533d8ab43cU, 0xbf360c8f3e873c87U, 0xbe12183c3eb34c4aU,
  0xbe1f60423cd48058U, 0xbf52d7573ed12e57U, 0x3cde7c4d3e98f575U, 0xbedb025c3e26dd3aU,
  0x3e6c64123f5cbf54U, 0xbef82ea93daca606U, 0x3d0fdfb03e257471U, 0x3f64664ebe817c85U,
  0xbf01aed63ce4bb6cU, 0x3e2b8c91be6ce6b0U, 0xbecc39a13ec823ffU, 0xbe158111bda61da1U,
  0x3f038220bebf0879U, 0xbf2fce4b3ee3065cU, 0x3e3606e73e507343U, 0xbe7f6cc93e841dc9U,
  0x3e92cbc33eba6e4cU, 0xbd93b3f13e1c51a4U, 0x3d313e55bddd8deaU, 0xbdf8a21abd93b3f1U,
  0x3f0d6c143eaff14bU, 0xbddeb64b3e0e8926U, 0x3de79ede3cf97002U, 0x3f22976bbe6481c7U,
  0xbe89b0a9bf3a0731U, 0x3dbb7e2d3f0f8c9aU, 0xbe7aa180bca51f1bU, 0xbebb3c6abe804397U,
  0x3e0d8860be07a2b2U, 0x3f0ba75f3dc52886U, 0xbecd5f8bbef672a7U, 0x3f82697800000000U,
  0x3b702ec93e2ca1a0U, 0xbe8adb0c3eb7e3d2U, 0x3eee4e6bbe8539f3U, 0x3e1d87e3be7ffcd1U,
  0x3f50666fbf20d00dU, 0x3f120b50U, 0xbece4b14be92312dU, 0x3e9bf030beaa8eb4U,
  0x3eaf6e353e496b93U, 0x3eb625063eba1ab3U, 0xbf10871e3bfd6b2aU, 0xbd1e62fabf7b7054U,
  0xbeebcf123dfadc4aU, 0xbf1f4be23dbea76bU, 0xbe259164bc208cfcU, 0x3e5ba035bdc02c2eU,
  0x3f59e8f5beab9529U, 0xbef3a5bb3ddba035U, 0xbe4bb08cbd966abeU, 0xbec6fd36be007b2dU,
  0xbe91b7683e6b06c9U, 0x3f02eb7c3e12e2bdU, 0xbf4ac4213e861cf0U, 0xbc4c5cdb3f147b77U,
  0x3f10add13e204281U, 0x3c8e74013e0e7401U, 0xbf8d57193e2929c1U, 0xbf18e4d43e7aa54aU,
  0x3f1f28f53e8c5c90U, 0xbeb477023f0255f3U, 0x3edc91b2be80aa52U, 0xbf91e5b43e8542b1U,
  0xbc130bcc3c930bccU, 0x3e3e3cfdbd12564cU, 0xbe458e1abe4cdf37U, 0x3f684f66bf2849a4U,
  0x3cae83963f66de14U, 0x3cae83963e116da8U, 0xbe68af73bf4282aaU, 0xbf79c4033edc440bU,
  0x3e54662fbdebffc2U, 0xbd9d552cbd3ccc9cU, 0xbdb0a5bf3c5ccf2fU, 0xbe497d0ebe0f86abU,
  0x3eaf4474bea9bf46U, 0x3eb13b17be4b7cbcU, 0xbdf2df33be13b13eU, 0x3eadf2e33ed0690bU,
  0x3e88ccacbeaa663eU, 0xbd5333013eed9961U, 0x3f1866423ec26638U, 0x3f09af01bedb3971U,
  0xbd407d5dbf170d0bU, 0x3dcb2eff3f29c3e6U, 0xbea74c54be839088U, 0xbece47bfbe8eef32U,
  0xbdcfe78ebea0cd18U, 0x3ef3ddb43ec6fea3U, 0xbec8f213bef7c494U, 0xbe2bae833e5a8104U,
  0x3e488a10bd506f3fU, 0xbd372b76be42391eU, 0xbdc6f5d4bd1145c7U, 0xbe44d3cebf504f18U,
  0xbe0337dfbedbca62U, 0x3e3125063f139edbU, 0x3e0eeccebe566336U, 0x3e9a5be93e905ab2U,
  0x3e313a1f3eb583c9U, 0x3d86d4cdbed60b6cU, 0xbdde78b93ec6e048U, 0x3ed45bf6be61d7a5U,
  0x3cf996a0bf77a373U, 0xbc7996a0bf123e42U, 0x3e6230813dda63ccU, 0xbe4f958f3e895f35U,
  0x3dc35f96befd5ff7U, 0x3e0c6cb43f41d8d7U, 0xbd558a34be72a8afU, 0xbe49682bbe9a16a3U,
  0x3e6419723d9672d3U, 0xbf155fa53f069222U, 0xbf2ae7ab3f013020U, 0x3e67763a3eb9b52eU,
  0x3f037574bc8b72faU, 0xbe2ef359bf05e0cdU, 0x3d0c55433e68be6cU, 0xbe4d1ef83e1290beU,
  0x3ea89b8e3eb7c979U, 0xbe885e4f3e30840fU, 0x3ce69c863c3c2463U, 0xbdc0ae1f3e88e4d0U,
  0x3f100e0a3d8fbbc6U, 0x3c96eed33d97baf0U, 0xbed54a39bdcdc1c1U, 0xbe2f773fbec488f4U,
  0x3e25c846bea8cf9dU, 0xbe8d608dbe0e226dU, 0x3e2371e33eee1e55U, 0xbe4a61c83f00ba81U,
  0x3e10ea98bd1d5929U, 0xbe8f57acbe8b4430U, 0xbe404e563e2514ddU, 0x3edbc4ecbe9cb23eU,
  0xbd53dfd43f098189U, 0xbed30315bd91933bU, 0x3e46ba45bc2af19cU, 0x3d0d2c1a3e910282U,
  0x3e8ba3f8bdd262e8U, 0x3e9b5b5fbea677aeU, 0x3d032d9dbe1f741bU, 0x3dd123b8bda53a61U,
  0x3ef2126bbdfca90dU, 0x3ed097863dc25b0aU, 0xbe29f2353f1fe674U, 0x3ef4fb75be987c28U,
  0xbdcebab63dbcd6dcU, 0xbdfc72c6bc7e6fa5U, 0x3c97124abdd0b795U, 0x3caeecc13cdea1b0U,
  0x3de09e90bd0b250eU, 0xbd9b0c093c3ed3bcU, 0x3cc6c739bbdea1b0U, 0xbdc4ca5a3d32e680U,
  0xbd8331913d3ed3bcU, 0xbd8b250ebde29b6fU, 0x3dd6ae333df67c28U, 0x3d8134b23de4984eU,
  0xbcbed3bc3db6e03fU, 0x3d7e6fa5bd97124aU, 0xbdb8dd1ebd8f1ecdU, 0x3cd6ae33bd3ad9fdU,
  0xbd5ea1b03d6e88abU, 0x3c872b50bd97124aU, 0xbdb4e35fbda102a6U, 0xbcaeecc13d852e70U,
  0x3ddea1b03ddea1b0U, 0x3d2eecc13d1b0c09U, 0xbb7e6fa53c9f05c7U, 0x3afe6fa5bc0f1ecdU,
  0x3dd8ab133d1f05c7U, 0xbd6e88abbd033191U, 0xbd767c28bd13188bU, 0x3dbed3bc3caeecc1U,
  0x3d6a8eec3dc8c418U, 0xbd95156bbdc6c739U, 0xbcbed3bcbd072b50U, 0xbdf67c283c2eecc1U,
  0xbdb4bd6d3e70fc91U, 0xbdb4bd6d3fd4bef8U, 0xbd34bd6d3df0fc91U, 0xbdb4bd6d3d969ddbU,
  0x3df0fc91bcf0fc91U, 0x3fcf190d3f2d3588U, 0x3ead35883fad3588U, 0x3fc1eb3d3ef88476U,
  0x3f6974ac3ec3cd36U, 0xbd70fc91bd969ddbU, 0x3fef1a98bc70fc91U, 0x3f169ddb3db4bd6dU,
  0x3e078e12be8f15f6U, 0xbee974acbeb4bd6dU, 0xbe878e12bd969ddbU, 0x3cf0fc9100000000U,
  0x3f8d33fd3e169ddbU, 0x3c70fc913d969ddbU, 0x3ef884763e61ecc8U, 0x3fa1e9b1bcf0fc91U,
  0x3d70fc91bf25ada4U, 0x3ee974acbcf0fc91U, 0xbe8f15f6U, 0x3f169ddb3f12d9e8U,
  0x3f5e28d63fd2dcffU, 0xbdf0fc9100000000U, 0x3f7c4868be34bd6dU, 0x3f6974acbdd2dcffU,
  0x3f987fd4bdf0fc91U, 0xbdb4bd6dU, 0x3f74c0833fdc46ddU, 0xbd969ddb3dd2dcffU,
  0x3e80e97c3da411e3U, 0xbd8ca19e3da411e3U, 0x3d6a62b23d8ca19eU, 0x3e761ad43e473a4aU,
  0x3e5eaa90bd6a62b2U, 0x3dbb8228bf83d784U, 0xbf3b8228bf156bb8U, 0x3eb5a6173f156bb8U,
  0x3f32b80e3d3b8228U, 0xbdd2f26dbf83d784U, 0xbc3b8228bc3b8228U, 0xbeafca063dbb8228U,
  0xbe9859c0beb5a617U, 0xbfb2b80ebda411e3U, 0xbe8ca19e3e2411e3U, 0xbcbb82283da411e3U,
  0xbe6a62b23e86c58dU, 0xbfba0b243da411e3U, 0x3d8ca19e3dbb8228U, 0x3eb5a6173d3b8228U,
  0xbe6a62b23e927dafU, 0x3f1e35d2bd3b8228U, 0x3e00e97cbf7ee4eeU, 0xbf619898be2fca06U,
  0xbf29edf4bef61ad4U, 0x3e1859c0bc3b8228U, 0xbe927dafbc3b8228U, 0xbf0ca19ebda411e3U,
  0xbdd2f26d3d3b8228U, 0x3e2fca063dd2f26dU, 0xbe3b8228bef03ec3U, 0x3e2411e3bdea62b2U,
  0xbe1246ff3e32c88dU, 0x3dc309543fc71986U, 0xbe2287c6bde38ae2U, 0xbd0206383d430954U,
  0xbd0206383eebab46U, 0x3fbef9223fd14202U, 0x3ff7dbdb3f7ffc3eU, 0x4001022c3f1e7794U,
  0x3f86166a3f881e83U, 0x3dc30954bd820638U, 0x3fbae8f0bdc30954U, 0x3e8a269cbe020638U,
  0xbd4309543f73cba9U, 0xbdc3095400000000U, 0x3e020638bc820638U, 0x3d430954bc820638U,
  0x3fe592fb3e1246ffU, 0x3fb0c074bdc30954U, 0x3fa697f8be2287c6U, 0x3f985f4abde38ae2U,
  0x3facb042be9246ffU, 0x3ff9e3f4bda287c6U, 0x3de38ae23e2287c6U, 0x3f06166a3fc1013bU,
  0x3fc1013b3faeb85bU, 0x3e73cba93d020638U, 0x3fedb35e3dc30954U, 0x3fe9a32d3d020638U,
  0x3f903ee63dc30954U, 0x3dc309543d820638U, 0x3fa287c63fa48fdfU, 0xbe8a269cbd820638U,
  0xbe3782813e74ae01U, 0x3d74ae013ea09231U, 0x3db78281bdd61841U, 0xbd378281bd98ecc1U,
  0xbd98ecc13eed0891U, 0x3f42faa93ff2c4a5U, 0x3f98ecc1bf98ecc1U, 0x3fb3afc93f2c0a59U,
  0x3f83e5cd3f4aa019U, 0x3dd61841bcf4ae01U, 0x3dd61841bd378281U, 0xbf98ecc13d378281U,
  0xbf6190693f6d0891U, 0xbec6cd61bd98ecc1U, 0x3f1147513d74ae01U, 0x3dd618413d74ae01U,
  0x3f74ae01be09a1e1U, 0x3d74ae013d74ae01U, 0x3fa27b8d00000000U, 0x3f5618413d378281U,
  0x3fb1c66d3f6d0891U, 0x3fa64e453db78281U, 0x3e81fc71be81fc71U, 0xbefc53713fc8b6bdU,
  0x3fd8019d3ee56321U, 0xbcf4ae013df4ae01U, 0x3f87b885bcf4ae01U, 0x3f951a09bdb78281U,
  0x3e74ae01bd74ae01U, 0xbdf4ae013d378281U, 0x3f7c53713e09a1e1U, 0xbe74ae013cf4ae01U,
  0x3e1a71b1bd3e15c6U, 0x3d0e90543f55d87fU, 0xbe32346abda6530dU, 0x3d0e90543d6d9b38U,
  0x3d0e90543f26530dU, 0x3f797c943f2f3c13U, 0x3f797c94bf3b1d6fU, 0x3f8e90543f9a71b1U,
  0x3faf3c133f9d6a08U, 0x3d0e9054bf76843dU, 0x3f26530dbd6d9b38U, 0xbebe15c6bd6d9b38U,
  0xbf0b97fd3f440674U, 0xbf797c943d6d9b38U, 0x3ea6530dbe02aef8U, 0x3e02aef8bd8e9054U,
  0x3f46fecb3d6d9b38U, 0xbe797c94bded9b38U, 0x3f6aa2e0bdbe15c6U, 0x3fa6530d3cbe15c6U,
  0x3f58d0d63f82aef8U, 0x3fbc999abd6d9b38U, 0xbd3e15c63d3e15c6U, 0xbec406743fa7cf39U,
  0x3f76843d3f352cc1U, 0x3e02aef8bd0e9054U, 0x3f64b2323da6530dU, 0x3f3e15c6bd8e9054U,
  0x3eac43bbbd0e9054U, 0xbd3e15c63dd5d87fU, 0x3f3b1d6f3e82aef8U, 0xbded9b383da6530dU,
  0x3da98516bf079dabU, 0x3da98516bf472f93U, 0xbe189160bd879dabU, 0x3c879dab3da98516U,
  0xbda985163efe47a1U, 0xbe90178640068e70U, 0x3fb63bdebf9aafd7U, 0xbf53e65b3f582349U,
  0x3f8142473f2dc203U, 0xbd4b6c803efe47a1U, 0xbedc6036bded53ebU, 0xbf6d53ebbd879dabU,
  0xbe3a78cbbe901786U, 0x3e879dab3ecb6c80U, 0xbee4da113e7e47a1U, 0xbd879dab3e189160U,
  0x3f2dc203bded53ebU, 0x3e6d53eb3dcb6c80U, 0xbe6d53ebbc879dabU, 0x3edc6036bc879dabU,
  0xbeb1fef03fc5111cU, 0x3f901786bd079dabU, 0xbe2985163eba78cbU, 0xbf472f933fa98516U,
  0x3fe6f887bf298516U, 0x3da985163c879dabU, 0x3eb1fef0bc879dabU, 0x3f609d233dcb6c80U,
  0x3e4b6c80bdcb6c80U, 0xbdcb6c80be3a78cbU, 0xbe7e47a1bd879dabU, 0x3e6d53eb3dcb6c80U,
  0xbd5440c1bd34cedeU, 0xbd4487cfbcfb8f1eU, 0x3d879b263de5f0d1U, 0x3de7e7f0U,
  0x3d30e0a13ccc6448U, 0x3c3cab56bdf1bb87U, 0xbd8f779fbc0d8081U, 0x3de20295bdc67eeeU,
  0x3d6bd62c3dd05285U, 0xbd5052853df3b2a5U, 0x3d409993bcacf265U, 0xbccc6448bcacf265U,
  0x3d099244bdd440c1U, 0x3b9d3973bd9b4255U, 0xbd1d39733df99800U, 0x3d9b4255bd2127afU,
  0xbc2cf265bd3cab56U, 0xbd5052853defc469U, 0xbd8f779fbdb6c5fcU, 0xbd73b2a5bd0d8081U,
  0x3d505285bd85a408U, 0xbd2515ec3cacf265U, 0xbd2127afbdc67eeeU, 0xbd2515ecbd582efeU,
  0x3cdc1d3abde7e7f0U, 0xbdc67eeebdbcab56U, 0x3d5440c1bdd05285U, 0xbd5440c1bd994b36U,
  0x3d879b263dc8760cU, 0xbdf3b2a53d9365dcU, 0xbd409993bdb6c5fcU, 0x3c4c64483dd440c1U,
  0x3a806229bdbe91b5U, 0xbce0abc8bdc697d7U, 0x3ddca8b6bd0c6b5dU, 0xbcb086f83d207ab3U,
  0xbd14717f3cb086f8U, 0x3d4899603d489960U, 0xbd4899603d08684cU, 0xbc906e6e3ddaa72eU,
  0x3da07ab3bd489960U, 0x3dfec2c93dd09f83U, 0xbd3086f83d187491U, 0x3ddaa72e3d8263b2U,
  0xbc806229bdfabfb8U, 0x3cc0933ebdae8570U, 0xbcd09f833d54a294U, 0x3d64aed9bc3086f8U,
  0xbdd6a41dbca880d6U, 0xbd8062293dcc9c71U, 0x3c40933ebc60abc8U, 0xbdf0b80dbc006229U,
  0xbd68b1ea3d6cb4fcU, 0x3cf0b80dbd84653aU, 0xbd6cb4fcbd8666c3U, 0xbd40933ebd2c83e7U,
  0xbd08684cbd54a294U, 0xbdce9dfa3d04653aU, 0x3b006229bd9a7619U, 0x3d8c6b5d3c906e6eU,
  0x3d247dc5bdb48a0aU, 0x3d8e6ce53d926ff7U, 0xbd44964fbdeeb684U, 0xbda27c3cbddca8b6U,
  0xbcdd45963e419ce3U, 0xbd5d45963fbc6d42U, 0xbcdd45963cdd4596U, 0xbdf8ee493c5d4596U,
  0xbda5f430bda5f430U, 0x3fb583153f305374U, 0x3ed65b693fa7aebcU, 0x3fab23d23e419ce3U,
  0x3f3ab2b73df8ee49U, 0x3cdd45963c5d4596U, 0x3fcbfc26bd5d4596U, 0x3f227f1a3cdd4596U,
  0x3df8ee49bddd4596U, 0xbed65b69bcdd4596U, 0xbe8a4b7ebdc19ce3U, 0x3e0a4b7eU,
  0x3f52e653bd25f430U, 0xbcdd4596bcdd4596U, 0x3ed65b69bd5d4596U, 0x3f8890f33ddd4596U,
  0xbe0a4b7ebf227f1aU, 0x3ec88710bda5f430U, 0x3dc19ce3bebab2b7U, 0x3f1135aa3ebab2b7U,
  0x3f33c88a3fbe27cdU, 0x3da5f430bd25f430U, 0x3f52e653bdc19ce3U, 0x3f6e8f06bddd4596U,
  0x3f9d4f79bd8a4b7eU, 0xbda5f430bd8a4b7eU, 0x3f565b693fdb8b0bU, 0x3d5d45963ddd4596U,
  0xbe0c503ebda14e23U, 0x3d8fa0c03d049463U, 0x3d00290abddac1a3U, 0xbbd4209e3db766deU,
  0x3db53132bdb766deU, 0x3d9877723d2383cfU, 0x3d6162a8bdac5a80U, 0x3ddf2cfcbdc91440U,
  0x3d777b63bd8fa0c0U, 0x3d08ffbb3c30c5d9U, 0x3d54209ebc9f1876U, 0xbe0a1a92bd54209eU,
  0x3daa24d4bd46de94U, 0x3cb99c8abd42733cU, 0x3dc03d8fbd73100aU, 0x3d3531323d7be6bcU,
  0xbdd1eaf2bda383cfU, 0xbd9641c53b8d6b14U, 0xbdf545b73db53132U, 0x3de162a83d65ce00U,
  0x3d30c5d93d46de94U, 0x3dd4209ebdf545b7U, 0xbe05af39bcf77b63U, 0xbd4fb5453ddf2cfcU,
  0x3dcb49edbcd4209eU, 0xbdcfb545bdb0c5d9U, 0xbc8d6b143ca7ef28U, 0xbde803ad3ceea4b2U,
  0xbd65ce003b54209eU, 0xbe025eb6bd7be6bcU, 0x3cc2733c3d86ca0fU, 0x3dae902dbdd88bf7U,
  0x3def9ce73e0d96e6U, 0xbe64b8aeU, 0x3def9ce73dd9d475U, 0x3e9309023dae4391U,
  0x3dc40c033f898150U, 0x3cae4391bf3e99e7U, 0x3f33b5aebf5c8d84U, 0xbe9309023f056bbbU,
  0x3e59d4753f5f4692U, 0xbc2e43913dae4391U, 0xbefa8120bcae4391U, 0x3f235f583e02b2adU,
  0x3f1309023f261866U, 0x3f77c8123e4ef03cU, 0x3f0d96e6be8d96e6U, 0xbdc40c03bcae4391U,
  0xbe0d96e63e7a8120U, 0x3f904ff400000000U, 0x3e59d4753e2e4391U, 0x3f187b1fbd2e4391U,
  0x3f1b342d3f104ff4U, 0x3f33b5aebdc40c03U, 0xbe2e43913face70aU, 0x3f6a2acb3ea8d174U,
  0xbefa8120bd59d475U, 0x3e59d475bd2e4391U, 0xbe0d96e63def9ce7U, 0x3e59d4753d59d475U,
  0xbec40c033dc40c03U, 0x3d2e43913e64b8aeU, 0x3e02b2adbf1ded3bU, 0x3def9ce7bd82b2adU,
  0x3d0d01483e0d0148U, 0xbd0d01483fb0419aU, 0x3d5381ecbdd381ecU, 0xbd5381ec3d5381ecU,
  0xbdd381ec3d5381ecU, 0x3f8d01483e76c23eU, 0xbc8d01483fa3097bU, 0x3f043134be1ea171U,
  0xbc8d01483d0d0148U, 0xbd5381ec3f277186U, 0x3fa3097bbd0d0148U, 0x3fcf19e23c8d0148U,
  0x3f652215bee52215U, 0x3e95d15c3c8d0148U, 0xbe843134bdb0419aU, 0xbc8d0148bdb0419aU,
  0x3f116952bc8d0148U, 0x3f725a34bc8d0148U, 0xbea771863db0419aU, 0x3f3911aebd0d0148U,
  0xbf116952bf60ba0bU, 0xbf3911ae3d0d0148U, 0x3c8d0148bd5381ecU, 0x3f916952beb0419aU,
  0x3e0d0148400be745U, 0x3dd381ecbd8d0148U, 0x3ed381ecbd0d0148U, 0x3f3911ae3c8d0148U,
  0x3f9ea171bd0d0148U, 0x3df6c23ebe0d0148U, 0x3ecab1d83ffb2a48U, 0x3d5381ec3c8d0148U,
  0x3dfbf91200000000U, 0xbda7fb613e7bf912U, 0x3e51fa3abdc3fa9cU, 0xbd8bfc263e51fa3aU,
  0x3e6df974becafa6bU, 0x3e8bfc26bf4e7a52U, 0xbf967bdcbe0bfc26U, 0x3f167bdc3f327b17U,
  0x3f7bf912be8bfc26U, 0x3d8bfc26bf887c3fU, 0x3ea7fb61bd8bfc26U, 0xbf087c3f00000000U,
  0xbeedf974bf1d7babU, 0xbfd57a213d8bfc26U, 0xbec3fa9c3ebcfacdU, 0x3dfbf9123e27fb61U,
  0xbeb5faff3ddff9d7U, 0xbfde39e33ddff9d7U, 0xbc5ff9d73d27fb61U, 0x3f017c70bdc3fa9cU,
  0xbee6f9a63e0bfc26U, 0x3ee6f9a63c5ff9d7U, 0x3d8bfc26bfbb3adaU, 0xbf8f7c0ebcdff9d7U,
  0xbf017c70befbf912U, 0x3da7fb61bdc3fa9cU, 0xbe51fa3a3e19fbc4U, 0xbf0f7c0ebdc3fa9cU,
  0xbd27fb613d8bfc26U, 0x3dfbf9123e5ff9d7U, 0xbe43fa9cbe19fbc4U, 0x3e51fa3a3c5ff9d7U,
  0xbdacbebdbb82111fU, 0x3d2ec702bd67ae7fU, 0xbd0a3231bddf8d6dU, 0xbd841963bc8a3231U,
  0xbbc319ae3d02111fU, 0xbc32d78b3d986c10U, 0x3db4dfcfbda29567U, 0xbd4b3ac03b82111fU,
  0x3c82111fbdc521f3U, 0x3d0621a8bdf3e01aU, 0xbddf8d6d3d7c012cU, 0xbdb8f058bda6a5f0U,
  0x3dd974a03dd76c5bU, 0x3dd35bd2bbc319aeU, 0xbdf7f0a3bd639df6U, 0x3d36e8143cf3e01aU,
  0x3ddf8d6dU, 0x3d8008db3dc521f3U, 0xbdfe09713d9c7c99U, 0xbdf5e85f3dd35bd2U,
  0xbba295673dc9327cU, 0x3d0e42babde39df6U, 0xbe010cfdbcd35bd2U, 0xba82111fbd73e01aU,
  0xbd576c5b3daab679U, 0x3b02111f3d986c10U, 0x3cc319aebc229567U, 0xbdedc74dbda8ae34U,
  0xbdedc74dbd229567U, 0xbc02111fbd945b87U, 0xbd535bd2bda8ae34U, 0xbce39df6bcbaf89dU,
  0x3d3d3f2ebda59748U, 0x3d0def62be821b70U, 0x3cbd3f2eU, 0xbd0def623cbd3f2eU,
  0x3e54e714be54e714U, 0xbecefd1a3f9848d7U, 0x3f4c081e3fbbc4b0U, 0xbf16ce593f021b70U,
  0xbc3d3f2e3dec8efaU, 0xbd3d3f2e3f9fad4fU, 0xbed4e714bd3d3f2eU, 0x3f8def623dec8efaU,
  0x3f63b0033f2b8142U, 0x3f4c081ebe259748U, 0x3f10e45f3edad10dU, 0x3d3d3f2ebdec8efaU,
  0xbec91321bdec8efaU, 0xbfa88c45bcbd3f2eU, 0xbe93d95cbe7862ecU, 0x3e2597483d6c8efaU,
  0x3ee6a5003f6c8efaU, 0xbf49132100000000U, 0x3ebd3f2e3faa06c3U, 0xbe99c3553f259748U,
  0x3f4913213e99c355U, 0xbe2597483dd4e714U, 0xbe9fad4fbe99c355U, 0x3e3d3f2e3c3d3f2eU,
  0xbe880569bd6c8efaU, 0xbe2597483d0def62U, 0xbe7862ecbc3d3f2eU, 0x3dd4e7143c3d3f2eU,
  0x3e93819a3d8618baU, 0x3d20ea79bf16dbd2U, 0x3e715fb6bcd68df7U, 0x3dbbbc383e2e5359U,
  0x3e93819abebbbc38U, 0xbf0618babf3f1670U, 0xbf8e7a46bebbbc38U, 0xbefec8953eae5359U,
  0x3efec895be7ec895U, 0xbd8618babf7ec895U, 0xbf0ccd2abd568df7U, 0xbf96dbd2bdbbbc38U,
  0xbf3507c8bec270a8U, 0xbf9a360a3e8618baU, 0xbe4925183f1a360aU, 0xbda0ea793e492518U,
  0xbf3862003e20ea79U, 0xbfd4e0db3d8618baU, 0xbd568df73dd68df7U, 0xbe492518bd568df7U,
  0xbdd68df73f16dbd2U, 0x3e9a360a3c568df7U, 0x3ebbbc38bf9a360aU, 0xbfb1ad91bd8618baU,
  0xbefec895bfb86200U, 0x3e8618ba3da0ea79U, 0xbf2e53593e13819aU, 0xbf59e82fbc568df7U,
  0xbefec8953cd68df7U, 0x3e568df73e8618baU, 0xbed68df7bf492518U, 0x3e2e5359bc568df7U,
  0xbde66fb73d83ad8dU, 0xbd03ad8dbf5e34deU, 0x3e14233fbd03ad8dU, 0x3e14233f00000000U,
  0x3c83ad8d3f819ed7U, 0xbf1005d24002a632U, 0x3fbb3ac4bf51dc99U, 0xbf03ad8d3d458454U,
  0xbf1c5e173f458454U, 0x3d03ad8d3fc3759dU, 0xbf819ed7bd458454U, 0xbed5fa05bdc58454U,
  0x3e4584543faee27fU, 0x4000977c3e76e568U, 0x3f49a1c0bd03ad8dU, 0x3d03ad8dbc83ad8dU,
  0x3e458454bd03ad8dU, 0x3ff4d6b23c83ad8dU, 0x3f1005d2bde66fb7U, 0xbf1005d23d03ad8dU,
  0x3fbd497b3f6eaa90U, 0x3d03ad8d00000000U, 0x3da498f03fe2524aU, 0x3f819ed73f7f2041U,
  0x3fc3759dbec58454U, 0x3d4584543c83ad8dU, 0x3e55fa053d83ad8dU, 0x3f0be866bd83ad8dU,
  0xbed5fa053d03ad8dU, 0xbe666fb73d83ad8dU, 0xbc83ad8dbeacd3c9U, 0x3d458454bda498f0U,
  0xbcd2cb5c3d1e1885U, 0xbf2e9068U, 0x3d9e18853c52cb5cU, 0x3c52cb5cbdb871f0U,
  0x3d9e18853f561689U, 0xbe10ebcf3fd125c5U, 0x3fca8f6abfa99fa4U, 0x3f03bf1a3f2b453bU,
  0x3e7a517d3f5961b7U, 0xbcd2cb5c3f31db96U, 0xbf4c3501bdb871f0U, 0xbf88afde3d83bf1aU,
  0xbf0073ec3fa65477U, 0x3f8a55743d1e1885U, 0x3f5961b73d9e1885U, 0xbd9e18853d52cb5cU,
  0x3f1e1885bd1e1885U, 0x3fab453bbdb871f0U, 0x3f8f4639be6d24c8U, 0x3e1e18853d9e1885U,
  0x3fbbbd1e3f7d9cabU, 0x3f88afdebd9e1885U, 0x3cd2cb5c3f821983U, 0x3cd2cb5c3facead1U,
  0x3fb526c3be97822aU, 0xbc52cb5c00000000U, 0x3f03bf1a3d52cb5cU, 0x3f27fa0d3d9e1885U,
  0xbe8a55743d9e1885U, 0xbe2b453b3e03bf1aU, 0x3f0073ecbe2b453bU, 0xbe03bf1a3d9e1885U,
  0x3d3bdc2d3d3bdc2dU, 0x3dead3383ff9806cU, 0xbd3bdc2d3d3bdc2dU, 0x3dead33800000000U,
  0x3d8ce5223faa3f89U, 0x3fead3383f18a2e5U, 0x400e5cda3f89f5b1U, 0x3f9e81c63f5357b3U,
  0x3e98a2e53fc1bb0eU, 0x3dbbdc2d3f9e81c6U, 0x3f92c4033cbbdc2dU, 0x4015b374bdead338U,
  0x3fdf15753f41bb0eU, 0x40029f17bdead338U, 0x3f2460a7be98a2e5U, 0xbd8ce52200000000U,
  0x3ff9806c3e2460a7U, 0x403a6475bcbbdc2dU, 0x3f5936943cbbdc2dU, 0x3fd647233dead338U,
  0x3f5357b3bf35fd4cU, 0x3f95b3743dbbdc2dU, 0xbd8ce52240217137U, 0x402460a73f6ad338U,
  0x3f4799f040275018U, 0x3cbbdc2d3dbbdc2dU, 0x3ff9806c3dead338U, 0x3ffc6fdc3dbbdc2dU,
  0x3f8ce52200000000U, 0xbd3bdc2dU, 0x3f92c4033fb8ecbcU, 0xbe2460a73dbbdc2dU,
  0xbd9814153c8010e9U, 0x3ddc1d10bd8811f8U, 0xbd2c16b93d7820c3U, 0x3c8010e93c201523U,
  0xbd501b7b3cb01740U, 0x3d981415bda81632U, 0x3d3417c83c8811f8U, 0x3d581c89bd641e1fU,
  0x3d8a123b3daa1675U, 0x3dfc214b3cd01b7bU, 0x3cd81c8900000000U, 0x3de81ea63df4203cU,
  0x3dd61c46bd581c89U, 0xbcb8184f3d1c149cU, 0xbd8411703dce1b37U, 0x3dfe218e3d9613d1U,
  0xbd9613d1bdc219a1U, 0xbcb8184fbdfe218eU, 0xbd2c16b9bdfa2107U, 0x3da415ab3d1c149cU,
  0x3d8e12c23d7c214bU, 0xbdb017403d541c02U, 0xbb40195ebdcc1af3U, 0x3be01d983de21ddbU,
  0xbdbe191abc981415U, 0xbdd61c46bd7c214bU, 0xbca816323dcc1af3U, 0x3ba01523bde21ddbU,
  0xbc8010e93c101306U, 0x3d701fb53d38184fU, 0xbdc419e5bdf01fb5U, 0xbdfe218ebbc0195eU,
  0x3e02d56bbc82d56bU, 0xbd4440203fd28f78U, 0xbda38ac6bd02d56bU, 0xbdc440203da38ac6U,
  0xbda38ac6be549aceU, 0x3fadc3723ee4f57bU, 0x3da38ac63fa9acc7U, 0x3fa17f703d444020U,
  0x3f06ec163e33e573U, 0xbdc440203d82d56bU, 0x3fef2e28bd82d56bU, 0x3f8f196d00000000U,
  0x3ed49acebeed22d2U, 0xbecc6d77be8b02c2U, 0xbe933018be133018U, 0x3d02d56b3d444020U,
  0x3f4440203da38ac6U, 0xbda38ac63da38ac6U, 0x3de4f57b3d02d56bU, 0x3f7d7d7f3d02d56bU,
  0xbf1746c4bf58b179U, 0xbde4f57b3da38ac6U, 0xbd02d56bbf06ec16U, 0x3f1b5d6f3dc44020U,
  0x3efd7d7f3fd28f78U, 0xbd4440203d82d56bU, 0x3f4856ccbe33e573U, 0x3f5cc8253d82d56bU,
  0x3fa38ac63dc44020U, 0x3c82d56b3d444020U, 0x3f3c12ca4001cfc0U, 0x3da38ac63d02d56bU,
  0xbe01346dbdcc1f31U, 0x3da0b111be01346dU, 0xbdc7c7613d321051U, 0x3dce4b193d366821U,
  0x3d9a2d59be09e40dU, 0x3c3f17c13c0afa01U, 0x3dc7c7613de62e12U, 0x3dc9f3493d20b111U,
  0x3c3f17c13d54ced2U, 0x3cbf17c1bde1d642U, 0x3d1c5941bdb66821U, 0x3b5077023cb66821U,
  0xbdb43c39bdbabff1U, 0x3d778d523da2dcf9U, 0xbd1801713d507702U, 0xbd024a61bd180171U,
  0xbd8d25e93d8f51d1U, 0x3d9e85293da0b111U, 0x3a8afa01be058c3dU, 0xbdb21051bcbf17c1U,
  0xbc7335823d180171U, 0xbdab8c993ddfaa5aU, 0xbdf5616a3d4c1f31U, 0x3c0afa01bda0b111U,
  0x3d6a85e23dc9f349U, 0xbb0afa01bdd2a2eaU, 0xbc1c5941bdb21051U, 0xbd366821bdd4ced2U,
  0xbdf5616a3dafe469U, 0x3bf33582be08ce19U, 0xbcbf17c13b507702U, 0xbdb668213ddfaa5aU,
  0xbdbf566cbd9b158bU, 0xbd00e6afbcc15a06U, 0xbbe193b23d9f1cc0U, 0xbd557e123d252790U,
  0x3dd781ad3dcf7342U, 0xbd04ede4bde59ae8U, 0x3d598547bdd98547U, 0xbd71b088bddf9018U,
  0xbdf3b4233dffc9c3U, 0x3c313d313dbd52d1U, 0xbd82ea4a3dcd6fa7U, 0x3c71b0883da72b2bU,
  0x3daf39963c21205bU, 0xbdcd6fa7bdf3b423U, 0xbd9911f03df7bb58U, 0xbbc15a06bdb94b9cU,
  0xbc88f51abd252790U, 0x3d394b9cbdab3260U, 0x3c21205bbddb88e2U, 0x3cc15a063d950abaU,
  0x3c9911f03c88f51aU, 0xbcc15a06bd150abaU, 0xbdad35fbbd598547U, 0x3dfdc629bd86f17fU,
  0x3d354466bca92ec6U, 0xbc21205b3db13d31U, 0xbdad35fbbd88f51aU, 0x3d354466bd3d52d1U,
  0xbc80e6afbdd781adU, 0x3dd176dc3d415a06U, 0x3cc968713d1911f0U, 0x3d6da9533daf3996U,
  0xbd9ae3343db9dd71U, 0xbc77d1ecbf58d7aeU, 0x3cf7d1ecbc77d1ecU, 0x3df7d1ec3c77d1ecU,
  0xbd39dd713f859729U, 0xbf1324a43fe0963eU, 0x3fdac752bf321ee2U, 0xbf0f455c00000000U,
  0xbf3dbcb93f419c00U, 0xbd39dd713fb21ee2U, 0xbf6854cd00000000U, 0xbd9ae334bc77d1ecU,
  0x3e77d1ec3fa49167U, 0x3ff5e2483e6854cdU, 0x3f3dbcb9bdd8d7aeU, 0xbdf7d1ecbcf7d1ecU,
  0x3e1ae3343e0b6615U, 0x3ff0135dbd39dd71U, 0x3f1324a4bcf7d1ecU, 0xbf0786cd3db9dd71U,
  0x3faa60523f647586U, 0x3dd8d7aebdd8d7aeU, 0x3df7d1ec3ff20300U, 0x3f9ae3343f951448U,
  0x3fa49167beb21ee2U, 0xbcf7d1ecbcf7d1ecU, 0x3d39dd713c77d1ecU, 0x3f26810b3d39dd71U,
  0xbef7d1ec3c77d1ecU, 0xbe2a6052bd77d1ecU, 0x3d39dd71be8b6615U, 0x3d9ae3343cf7d1ecU,
  0x3c4135373d3cd119U, 0x3d718285bd413537U, 0xbe04d4963d3cd119U, 0xbc75e6a3bdba9f0aU,
  0x3d4e61923cdb8dedU, 0xbe0b6ac3bd954c08U, 0xbbd2c5b0bbd2c5b0U, 0xbc75e6a33c75e6a3U,
  0xbb0c83cb3da27863U, 0xbdb1d6cd3da27863U, 0x3cd2c5b03d4e6192U, 0x3d64562abd7eaee0U,
  0x3dc59955be007078U, 0xbc954c08bc1e1444U, 0xbc52c5b03d49fd74U, 0x3da278633d19b026U,
  0x3d7eaee0bdf5e6a3U, 0xbd413537bc954c08U, 0x3dafa4beba8c83cbU, 0xbda27863bd8a51bcU,
  0xbd9319f93da27863U, 0x3b52c5b03d26dc81U, 0x3dafa4be3cb86cfaU, 0xbd9319f9bd3408dcU,
  0xbc4135373d7a4ac2U, 0xbdfeaee0bc64562aU, 0xbd03bb8e3db86cfaU, 0xbd881fadbcb86cfaU,
  0x3d26dc81bcc9fd74U, 0x3dba9f0abc75e6a3U, 0xbd0c83cbbc52c5b0U, 0xbca6dc813d90e7e9U,
  0x3ea4e3d53d436cd6U, 0x3c436cd6bec9883dU, 0x3eaaff3b3daaff3bU, 0x3e98ad073ea4e3d5U,
  0x3e803f6cbe065ad3U, 0xbed5bf0abf803f6cU, 0xbf97262ebe9291a0U, 0xbf7755bf3e4fa3a3U,
  0x3e1ec86ebdf4480cU, 0xbc436cd6bf21d621U, 0xbeee2ca5bdc36cd6U, 0xbebd516fbd74480cU,
  0xbec36cd6beaaff3bU, 0xbf8968863e98ad07U, 0xbe9291a03ecfa3a3U, 0x3daaff3b3ea4e3d5U,
  0xbf18ad073e98ad07U, 0xbfc1e5fc3cc36cd6U, 0xbf034d203e98ad07U, 0xbefa637200000000U,
  0xbf159f543e865ad3U, 0xbdf4480c3df4480cU, 0x3ea4e3d5bf065ad3U, 0xbf6b1ef1bf18ad07U,
  0xbf74480cbf9a33e1U, 0x3e4fa3a33dc36cd6U, 0xbf3d516f3e98ad07U, 0xbf6e2ca5bddbda71U,
  0xbed5bf0a3daaff3bU, 0x3e4fa3a33e68113eU, 0xbf18ad07bf55bf0aU, 0x3e9ec86e3d74480cU,
  0x3d7bc33a3da7d77cU, 0x3da7d77c3fdeea31U, 0xbd27d77cbca7d77cU, 0xbd7bc33abca7d77cU,
  0xbd27d77c3f885f15U, 0x3fc74fe3befbc33aU, 0x3f570c173f9ff962U, 0x3f1d5a043ca7d77cU,
  0x3ca7d77c3f66c84aU, 0xbdd1cd5b3f8d9dd1U, 0x3fb254f43ca7d77cU, 0x4023e86f3d27d77cU,
  0x3fdc4ad3bca7d77cU, 0x3fc74fe3bdfbc33aU, 0x3e27d77cbf0d9dd1U, 0x3dd1cd5b3d27d77cU,
  0x3f8d9dd13e12dc8cU, 0x401d5a0400000000U, 0xbe92dc8c3e27d77cU, 0x3fb254f4bdd1cd5bU,
  0xbefbc33abf85bfb7U, 0xbe12dc8cbca7d77cU, 0xbe7bc33a3fe428edU, 0x40118cdebe92dc8cU,
  0xbe12dc8c402687cdU, 0x3dfbc33a00000000U, 0x3f8d9dd13dd1cd5bU, 0x3fa7d77c00000000U,
  0x3faa76dabca7d77cU, 0x0U, 0x3f2d16384005bfb7U, 0xbe12dc8cbda7d77cU,
  0xbd0d52223b9d05edU, 0xbdacb9b83d152c08U, 0xbdddcb923d500e41U, 0xbd876eb6bd876eb6U,
  0xbb3c6d833d774fbcU, 0xbd913f15bdf55943U, 0xbded7f5dbd6b88e4U, 0x3d34939e3c85783dU,
  0xbd4c214ebcbc6d83U, 0xbdcc214eba7b3cafU, 0xbb3c6d83bd9b0f74U, 0xbd1d05ed3de3aeffU,
  0xbd48345b3d7f29a2U, 0xbdf362cabd096530U, 0x3df946363dd3fb34U, 0x3da2e959bb3c6d83U,
  0x3d7f29a23dd204baU, 0xbdf362ca3d8381c4U, 0xbdc44769bdf16c50U, 0xbdddcb923d20f2e0U,
  0xbd774fbcbdc44769U, 0xbdeb88e4U, 0xbd952c083c952c08U, 0xbd4447693da6d64cU,
  0x3dc250efbd113f15U, 0xbc6b88e43ddbd519U, 0xbd7f29a2bdb88091U, 0x3d952c083c85783dU,
  0xbd63aeff3d7f29a2U, 0xbddfc20cbdf16c50U, 0x3afb3cafbd20f2e0U, 0xbdca2ad5bd679bf1U,
  0x3e2e62db3d56a10dU, 0xbdf1752fbec936fcU, 0x3ebbccebbd20f8caU, 0x3e8cd9b13ea7add2U,
  0x3e640b1ebd20f8caU, 0xbf4936fcbfd4f3cbU, 0xbf9d9e463e0624a8U, 0xbfb6c525beeac026U,
  0xbf4c9180bf097f2cU, 0x3dd6a10d3ec936fcU, 0xbef1752f3da0f8caU, 0x3f56a10dbd20f8caU,
  0x3f1d9e46bf3bccebU, 0x3f16e93d3ec936fcU, 0xbe138eb9bc56a10dU, 0xbd8624a83eb517e3U,
  0xbf5346893e938eb9U, 0x3eb517e300000000U, 0xbf6765a23ecfec05U, 0xbf2e62dbbda0f8caU,
  0xbf87d1eabf1a43c1U, 0xbf98967f00000000U, 0x3dd6a10d3e938eb9U, 0x3efedf3fbfa2a60cU,
  0xbfbbccebbf24534eU, 0x3e4936fcbcd6a10dU, 0xbf45dc783ea7add2U, 0xbf56a10d3c56a10dU,
  0xbed6a10d00000000U, 0x3e4936fc3e2e62dbU, 0xbf20f8cabe640b1eU, 0x3ef1752f3cd6a10dU,
  0x3ddf5ab1bd83b8c4U, 0xbb98b88a3ddb8947U, 0xbd242cc8bdce2c54U, 0x3af45a77bd0972e3U,
  0x3cbee6adbde8e639U, 0xbd01d00fbd55cf28U, 0xbcd5cf28bd83b8c4U, 0xbd878a2ebdeea058U,
  0x3da7fe323c3743d9U, 0xbdc0cf623de8e639U, 0xbd9115b73d55cf28U, 0xbbb743d9bdc68981U,
  0xbddb8947bd92fe6cU, 0xbdabcf9cbdeea058U, 0x3d8f2d023dd1fdbeU, 0xbdabcf9cbd4a5aebU,
  0xbd96cfd5bdc4a0ccU, 0x3d9aa13fbd51fdbeU, 0xbd4689813d27fe32U, 0xbd9e72a93dafa106U,
  0x3cdd71fcbdd01509U, 0x3d1115b7bd8d444dU, 0xbd70890d3dd9a092U, 0x3d3ee6adbdb3726fU,
  0x3de514d0bde6fd84U, 0x3d782be1bd70890dU, 0xbdadb851bdcc439fU, 0x3d3743d93c6514d0U,
  0x3dd5cf283dc68981U, 0xbc81d00fbbf45a77U, 0xbcecb7a33ca7fe32U, 0xbdf271c23b98b88aU,
  0x3eb77cffbd0bccf3U, 0x3daec030bef4a6a9U, 0x3e876e8b3c0bccf3U, 0x3e377cff3ecd5505U,
  0x3e7d6378bc8bccf3U, 0xbf1489c2bf7f92acU, 0xbf7d6378bf1489c2U, 0xbf48f69d3e0bccf3U,
  0x3c8bccf3bd8bccf3U, 0x3dd1b36cbf102b5bU, 0xbef4a6a93d8bccf3U, 0xbe876e8bbd9d4691U,
  0xbd0bccf3be260361U, 0xbf3e0a9a3ebbdb67U, 0xbde32d0b3eaa61c8U, 0x3de32d0b3eaa61c8U,
  0xbf2a61c83e7d6378U, 0xbf8886253df4a6a9U, 0xbf125a8e3e98e82aU, 0xbee32d0bbd2ec030U,
  0xbe9d46913e48f69dU, 0xbe0bccf3bdaec030U, 0x3e876e8b3d8bccf3U, 0xbf377cffbee32d0bU,
  0xbf5ecea3bf8ab559U, 0x3e0310243d9d4691U, 0xbf377cff3e2ec030U, 0xbf2ec030bd74a6a9U,
  0xbef048423d9d4691U, 0x3eaec0303e1489c2U, 0xbf031024bf2c90fcU, 0x3ea1a4f9bd2ec030U,
  0x3e40e4723d5cabd5U, 0xbcb7d4e33ea48052U, 0xbd43d5f83e1a5a12U, 0xbd3d11b9bc8eba64U,
  0x3b339130bdf02e13U, 0xbb8d6b4ebe015741U, 0x3e5102113d129ca4U, 0x3e5411dbbdcb2e2bU,
  0xbd8849ad3e3dd81bU, 0xbd67a81c3b05a4e4U, 0x3e38751dbcc32ba4U, 0xbc812ca23dd87a96U,
  0xbde1b213bcbfaf3bU, 0x3db23d7a3e302b97U, 0x3e96ea82bc41ede6U, 0x3e3298e63c14eadcU,
  0xc00820aa3e19be7eU, 0xc034f8393ee69dbdU, 0xc011bc92c00686aeU, 0xbf79d58cU,
  0xbff6a1943cccfdfdU, 0xbec02e1d3d4cfdfdU, 0x3f46960dbf79d58cU, 0xbfbcfa25be001ebeU,
  0xbfb9c62d3f335e3dU, 0xc04b6401c00b54a2U, 0xbfdd01d5be335e3dU, 0xbd4cfdfd3e001ebeU,
  0xbd4cfdfdbfbcfa25U, 0xc01e8c723f13568eU, 0x3ee69dbd00000000U, 0x3ef36d9c3d99be7eU,
  0x3f82189dbdc1a1a8U, 0x3eebfd053eaf7a80U, 0x3f2666ec3d91393eU, 0x3e296d73bf95c308U,
  0x3f41a1a83cc1a1a8U, 0x0U, 0x3f02189d3f296d73U, 0xbfc01e653da96d73U,
  0xbfb4044abe35878eU, 0x3ed9d5ddbf388e14U, 0x3f5cdc643d11393eU, 0xbdc1a1a83e1d5358U,
  0xbc41a1a8bfa96d73U, 0x3f1d5358be11393eU, 0xbe91393e3e1d5358U, 0xbe11393ebdc1a1a8U,
  0xbeab34633e048ba8U, 0x3eb0ba353dc6d17cU, 0x3f5fabab3f65317dU, 0xbcb0ba353fa9d2efU,
  0xbedce8c2be1aa2eeU, 0x3e5ce8c23d5ce8c2U, 0xbfaf58c1U, 0xbd848ba83c30ba35U,
  0x3f2df74c3db0ba35U, 0xbd048ba83f93bba8U, 0xbf874e913dc6d17cU, 0x3cb0ba35bdc6d17cU,
  0x3d848ba83f51dd1fU, 0xbf75c2f2bdf30009U, 0xbf125a3400000000U, 0xbddce8c2be1aa2eeU,
  0x3f1d0c5cbddce730U, 0x3efbf7b3bf3c1cdfU, 0xbe2c949e3ee74206U, 0xbcdce7303e832944U,
  0x3f1625233dc14a4aU, 0xbeb6ef74bd8a107eU, 0xbf337bd73f2adacfU, 0x3f23f396bbdce730U,
  0x3ea239c7bf5b2d62U, 0x3f04e3133ec14a4aU, 0x3f04e313bddce730U, 0xbdc14a4abe032944U,
  0xbd8a107e3ef88416U, 0x3edce730bf337bd7U, 0xbef510793d25ad64U, 0xbf4677b5bdf88416U,
  0xbf98eaec3d18eaecU, 0xbf6a27b9be524304U, 0xbfac084abfc3ecfeU, 0xbdbf25a7c017b916U,
  0xbf8cf89200000000U, 0x3f0f5c3dbe2c084aU, 0xbf0a94e63e3f25a7U, 0x3f91bfe9bc98eaecU,
  0x3f3f25a7be8f5c3dU, 0x3f570a5cbe656062U, 0xbf8369e3bc98eaecU, 0xbe05cd8e3de56062U,
  0xbde560623f8cf892U, 0x3fa015ef3d656062U, 0x3f05cd8ebd98eaecU, 0x3e18eaecbe05cd8eU,
  0x3dff9f5abd183951U, 0x3cff2c033daefadbU, 0x3cfc57bcU,
};


ai_handle g_network_weights_table[1 + 2] = {
  AI_HANDLE_PTR(AI_MAGIC_MARKER),
  AI_HANDLE_PTR(s_network_weights_array_u64),
  AI_HANDLE_PTR(AI_MAGIC_MARKER),
};

