/**
  ******************************************************************************
  * @file    network_data_params.c
  * @author  AST Embedded Analytics Research Platform
  * @date    2026-07-18T15:13:59+0530
  * @brief   AI Tool Automatic Code Generator for Embedded NN computing
  ******************************************************************************
  * Copyright (c) 2026 STMicroelectronics.
  * All rights reserved.
  *
  * This software is licensed under terms that can be found in the LICENSE file
  * in the root directory of this software component.
  * If no LICENSE file comes with this software, it is provided AS-IS.
  ******************************************************************************
  */

#include "network_data_params.h"


/**  Activations Section  ****************************************************/
ai_handle g_network_activations_table[1 + 2] = {
  AI_HANDLE_PTR(AI_MAGIC_MARKER),
  AI_HANDLE_PTR(NULL),
  AI_HANDLE_PTR(AI_MAGIC_MARKER),
};




/**  Weights Section  ********************************************************/
AI_ALIGNED(32)
const ai_u64 s_network_weights_array_u64[164162] = {
  0x101010101010101U, 0x101010101010101U, 0x101010101010101U, 0x101010101010101U,
  0x101010101010101U, 0x101010101010101U, 0x101010101010101U, 0x101010101010101U,
  0x101010101010101U, 0x101010101010101U, 0x101010101010101U, 0x101010101010101U,
  0x101010101U, 0x2000402000401U, 0x305000004000000U, 0x100000002000002U,
  0x20000000000U, 0x105050000050003U, 0x10300000004U, 0x204050000030400U,
  0x10504U, 0x1000005000005U, 0x5000100020000U, 0x303000000U,
  0x5010200000004U, 0x4000000030002U, 0x40103000200U, 0x10300000002U,
  0x105000500000004U, 0x3000005000000U, 0x3040000U, 0x401000002000105U,
  0x50004040200U, 0x300010400020000U, 0x30004000004U, 0x500000200010000U,
  0x2030400000100U, 0x502020201040000U, 0x5030300000003U, 0x1030004000500U,
  0x503040000000500U, 0x303000004010000U, 0x3030000000003U, 0x3000001000500U,
  0x3050200000000U, 0x50400030000U, 0x501000005000003U, 0x10000000000U,
  0x101030000000300U, 0x5020104U, 0x302000000U, 0x104050000050005U,
  0x400000000000000U, 0x30400U, 0x3000400050400U, 0x20200010000U,
  0x5000000000000U, 0x500000000030005U, 0x200000000050500U, 0x4050000000001U,
  0x201020100000000U, 0x30005000000U, 0x30400030300U, 0x100050000030305U,
  0x200000202010000U, 0x50100000002U, 0x10103U, 0x40000000205U,
  0x200000500000405U, 0x500040200000200U, 0x401000000000005U, 0x10000000005U,
  0x2020000000001U, 0x300000005000500U, 0x202000400030000U, 0x1000001000000U,
  0x105030003030000U, 0x300000001000000U, 0x3000100000403U, 0x30400040000U,
  0x20301000000U, 0x200040005000001U, 0x200050500000004U, 0x50502000000U,
  0x500000005000100U, 0x205020505U, 0x403000003U, 0x2030000010403U,
  0x304000400U, 0x1050202000004U, 0x300000001000000U, 0x30000050302U,
  0x500000400020000U, 0x5000204050000U, 0x400000500000500U, 0x1020300010504U,
  0x100000005U, 0x50300000000U, 0x4030200U, 0x203050000000405U,
  0x5030000010000U, 0x201000000040500U, 0x3050500000300U, 0x400000200010002U,
  0x20000U, 0x40000010100U, 0x300000000020003U, 0x50004000300U,
  0x402010000040003U, 0x40100000400U, 0x502010300U, 0x400000000000005U,
  0x50000050100U, 0x4050300020000U, 0x3000001U, 0x40005000101U,
  0x400040004010000U, 0x3000000000004U, 0x30105000404U, 0x100020200000000U,
  0x300000003000202U, 0x300000005000003U, 0x100040500000001U, 0x1020401000000U,
  0x3040000000001U, 0x504010400050000U, 0x400000204U, 0x1000000U,
  0x100050400000300U, 0x5000000050002U, 0x3050000050200U, 0x103000000040000U,
  0x2030400000001U, 0x5040000000004U, 0x30000010000U, 0x10002030403U,
  0x2000000000400U, 0x5000000000001U, 0x102000300000503U, 0x5000000020400U,
  0x5010005000005U, 0x3020200000200U, 0x200000500000205U, 0x200030002000100U,
  0x201000500050000U, 0x1040000000000U, 0x505040000000403U, 0x105000005040104U,
  0x100000000000000U, 0x200000003030200U, 0x10002040000U, 0x103000005030100U,
  0x2000000000102U, 0x1010000050403U, 0x5010000000000U, 0x100000400000000U,
  0x100010003020100U, 0x5010001010000U, 0x500040000000200U, 0x100010000U,
  0x200000004040305U, 0x503050000U, 0x20000000104U, 0x101000000040003U,
  0x102000400U, 0x4000003010500U, 0x500000002000400U, 0x300000000020004U,
  0x3010000000101U, 0x104000105020000U, 0x1040000000200U, 0x400030000040003U,
  0x200030000U, 0x502010000030503U, 0x0U, 0x5040000000405U,
  0x3040400000005U, 0x300000005000000U, 0x40000000000U, 0x100000003050004U,
  0x30004000000U, 0x200000000050500U, 0x300000100040203U, 0x100000001010400U,
  0x101000000020200U, 0x300000000010000U, 0x10000040200U, 0x2040000000204U,
  0x1000000000301U, 0x4050002000002U, 0x500010005030000U, 0x100000300040000U,
  0x5020400000100U, 0x504000000000000U, 0x300000003000300U, 0x200010205040301U,
  0x500030000000403U, 0x103000500U, 0x400000002000000U, 0x305000400000503U,
  0x1000002000002U, 0x5020003040300U, 0x50200010000U, 0x3050204000000U,
  0x200050200000000U, 0x4000401U, 0x4000103020200U, 0x400000005000000U,
  0x3040000000300U, 0x50002U, 0x50000040104U, 0x5010400000000U,
  0x30103050300U, 0x304020000000201U, 0x200000200000100U, 0x20100030000U,
  0x103000400000405U, 0x5010200000000U, 0x400000000U, 0x40305030000U,
  0x2000000010503U, 0x4000001000001U, 0x3010200050100U, 0x5000100000400U,
  0x10400010000U, 0x5000405040000U, 0x5050004000001U, 0x4010002040400U,
  0x50005000002U, 0x400000000000000U, 0x305000001000100U, 0x300000204030100U,
  0x405000000020005U, 0x4020200000300U, 0x104000300000000U, 0x4050002000000U,
  0x100000000U, 0x300000200000103U, 0x400000100010004U, 0x2000405U,
  0x50000000104U, 0x200020005000000U, 0x5040204000000U, 0x500000000000304U,
  0x4030500000001U, 0x200000500010000U, 0x200030002010502U, 0x103000000000305U,
  0x200000003U, 0x1000005010500U, 0x30100U, 0x4000001000000U,
  0x200040000050100U, 0x300000201010000U, 0x102000002050000U, 0x400000100030000U,
  0x500050203U, 0x40100040000U, 0x100000500000200U, 0x100000200000201U,
  0x101040103U, 0x50405U, 0x300050000000204U, 0x1040005000000U,
  0x100000005020000U, 0x2020201050000U, 0x2030402U, 0x40004000000U,
  0x50500000402U, 0x40302000100U, 0x40200050000U, 0x50002000004U,
  0x2040000000401U, 0x202000000U, 0x403030000040004U, 0x204000301000300U,
  0x200U, 0x2000000000001U, 0x300010500000504U, 0x300000100U,
  0x50001000002U, 0x400000302000401U, 0x404000000U, 0x105020100050405U,
  0x403000000000100U, 0x4000300U, 0x1000400040001U, 0x103000400000000U,
  0x40005030000U, 0x301000004000400U, 0x40200000001U, 0x102000002U,
  0x100000003030000U, 0x502000002000300U, 0x4030000U, 0x1000101050100U,
  0x2000500000001U, 0x5040400U, 0x200000000000300U, 0x405000203U,
  0x4020000000405U, 0x4020000030101U, 0x300010004000002U, 0x50000000002U,
  0x200010200000000U, 0x30000030000U, 0x303020000010000U, 0x100020000010102U,
  0x20000000004U, 0x301000000U, 0x400040200U, 0x100050000010100U,
  0x50000050005U, 0x100040402000003U, 0x500030500000300U, 0x101040000000005U,
  0x20000000000U, 0x304030102U, 0x20000000100U, 0x1040300U,
  0x202020000000301U, 0x5000005U, 0x10405000400U, 0x205050104000000U,
  0x202000004U, 0x100010002U, 0x10104U, 0x40400000000U,
  0x10004000000U, 0x402000001000000U, 0x20405040000U, 0x203000000020000U,
  0x50101U, 0x5010500U, 0x205000404U, 0x503000001U,
  0x1000000000404U, 0x3030000000302U, 0x400010000050000U, 0x503020004040000U,
  0x50100000500U, 0x1040500000000U, 0x40005010000U, 0x1000400050500U,
  0x103050400000400U, 0x301030100000000U, 0x4000404000000U, 0x40403000000U,
  0x4000000050501U, 0x100000000050500U, 0x401000005U, 0x40505000000U,
  0x3050004020000U, 0x505000001000000U, 0x500030000030000U, 0x30204030000U,
  0x505010000000103U, 0x20404000002U, 0x2U, 0x302030400U,
  0x500000001010104U, 0x200040200050000U, 0x203040000000000U, 0x401000000000000U,
  0x30000040002U, 0x200020000040100U, 0x1000000000104U, 0x3010100U,
  0x505010000050005U, 0x400030000U, 0x5000000000400U, 0x5040004000200U,
  0x5000500040000U, 0x5000505000200U, 0x100050203U, 0x501000001020000U,
  0x100000000000304U, 0x500050302000000U, 0x200000100000404U, 0x5050000000102U,
  0x404030000000100U, 0x400000100000000U, 0x500000004000001U, 0x501050000000000U,
  0x4000104000001U, 0x1030000000205U, 0x502000001000002U, 0x1000300000000U,
  0x1050003020500U, 0x30400000500U, 0x4040000040300U, 0x105000101U,
  0x30200000400U, 0x300000301000400U, 0x103010502U, 0x50100000000U,
  0x400030405000100U, 0x500030000000200U, 0x10001040400U, 0x4000400000000U,
  0x40004U, 0x3000102U, 0x1000400000300U, 0x305020101040500U,
  0x3000000000500U, 0x201000203000000U, 0x3050000000400U, 0x200000004U,
  0x5000203000004U, 0x4000004000004U, 0x205000000040000U, 0x300010000000204U,
  0x3000100000005U, 0x2000401030200U, 0x301010000U, 0x20001000000U,
  0x4000000020403U, 0x5000002030300U, 0x5020200U, 0x40300000200U,
  0x402000000040001U, 0x1000200000200U, 0x101010003000000U, 0x5030004U,
  0x200000100U, 0x2050000010205U, 0x200050400000000U, 0x100000005000401U,
  0x4010004000000U, 0x200030100040000U, 0x3040000010000U, 0x400000500000000U,
  0x30000010000U, 0x20503U, 0x500000005050001U, 0x2000305U,
  0x500000003010500U, 0x50300020000U, 0x4000004010000U, 0x503040004U,
  0x200000000010004U, 0x3010003040005U, 0x104010000000100U, 0x400000400000000U,
  0x30403000001U, 0x200030400U, 0x500000401040000U, 0x300030000000004U,
  0x1000000050001U, 0x400050305000001U, 0x2000000U, 0x4030200000002U,
  0x4040304U, 0x30000000004U, 0x400000004050003U, 0x105040000000105U,
  0x40100U, 0x300010000000005U, 0x50004000400U, 0x3050004U,
  0x404030004010000U, 0x4000300000501U, 0x400040003040300U, 0x200000000050000U,
  0x200000000U, 0x30300000001U, 0x3050100020000U, 0x10000010004U,
  0x400000000000302U, 0x4000201000000U, 0x300000202000000U, 0x3000103000002U,
  0x500000500050000U, 0x400000004000202U, 0x500000101000001U, 0x50000000001U,
  0x2000100010401U, 0x100040001000000U, 0x200030001000000U, 0x30400000400U,
  0x20002020401U, 0x400020000000100U, 0x50102040000U, 0x502000000050002U,
  0x400000000000204U, 0x500040000000300U, 0x1000000000002U, 0x200000403U,
  0x4000002030501U, 0x100000004000000U, 0x10200050101U, 0x300000002040000U,
  0x204000000000504U, 0x200030301U, 0x300000202000303U, 0x100000000000500U,
  0x404030000040005U, 0x300000000U, 0x20000030005U, 0x500000000010405U,
  0x304000000000000U, 0x40100000000U, 0x100020000030001U, 0x400030500000001U,
  0x10500030000U, 0x50000050200U, 0x500040104010000U, 0x204000503000000U,
  0x10300000400U, 0x404000000020400U, 0x300050400000001U, 0x100000300000204U,
  0x403000000030000U, 0x500000003000003U, 0x20500U, 0x1020400000000U,
  0x4000000U, 0x5030300000004U, 0x50500050000U, 0x101040000050000U,
  0x20403U, 0x40500000100U, 0x302000001040300U, 0x200000000050000U,
  0x200010000040000U, 0x1030002020000U, 0x500030000050001U, 0x103000000000300U,
  0x4000100000001U, 0x5040401030100U, 0x400000400020001U, 0x500050000050305U,
  0x200U, 0x400040205000002U, 0x40200000200U, 0x5030500U,
  0x200000005000501U, 0x503000000U, 0x500000300000000U, 0x400000300050003U,
  0x10300000404U, 0x40000000003U, 0x103020004020000U, 0x40001000000U,
  0x300000200020200U, 0x2000400000500U, 0x400000003000501U, 0x202020000000105U,
  0x3000400020100U, 0x40000000100U, 0x5020000020500U, 0x100000200000100U,
  0x1030201U, 0x402000000U, 0x203000503050001U, 0x400000000000300U,
  0x500000000U, 0x30000030401U, 0x500000301U, 0x10103000300U,
  0x2000005010000U, 0x300000500U, 0x2040401020400U, 0x500050304010502U,
  0x50000U, 0x100000000000505U, 0x201000000010004U, 0x50405000000U,
  0x503000000000401U, 0x2000000U, 0x400010300000100U, 0x3000000050003U,
  0x400010000000003U, 0x300030401000000U, 0x3030000000000U, 0x5000203000000U,
  0x40000050002U, 0x4000400020002U, 0x2010301000004U, 0x40000000400U,
  0x4050300000300U, 0x1000000000005U, 0x300000005010003U, 0x10000050200U,
  0x50101030100U, 0x103020405U, 0x2000000U, 0x105040000000305U,
  0x505030000000004U, 0x102U, 0x502000104000200U, 0x30500000000U,
  0x500000005000001U, 0x20002000100U, 0x200000103040201U, 0x203020200U,
  0x100000300000000U, 0x200030000U, 0x402000000000000U, 0x4000002000003U,
  0x105000000040003U, 0x404000000U, 0x502030000050000U, 0x500000001000002U,
  0x100000100010103U, 0x4000100000003U, 0x500000204000003U, 0x304000000000000U,
  0x205U, 0x5000500000100U, 0x1010000010004U, 0x100020000000100U,
  0x3000000000302U, 0x40505030000U, 0x0U, 0x303040000000501U,
  0x500U, 0x200000004000505U, 0x300050000000000U, 0x10505020000U,
  0x403000000000001U, 0x100040002000000U, 0x10000010000U, 0x300030501U,
  0x1010205000000U, 0x4000400010000U, 0x20001050000U, 0x1050105000100U,
  0x10004000002U, 0x30400000305U, 0x500010002030200U, 0x5000300000002U,
  0x4030500040500U, 0x1040500U, 0x400000001010404U, 0x500000000000100U,
  0x103000202000000U, 0x3050000U, 0x100000100010500U, 0x505000105U,
  0x403000000000500U, 0x30000000000U, 0x20403050400U, 0x500000000U,
  0x20304010200U, 0x200000000000500U, 0x50403000003U, 0x4000000010503U,
  0x2000000020404U, 0x400000005030004U, 0x30001000000U, 0x3000001000000U,
  0x502000000040000U, 0x5000100U, 0x300000000030005U, 0x4000500000302U,
  0x10205U, 0x303000000010300U, 0x504030002020000U, 0x1000005000000U,
  0x103000000000000U, 0x4000002000000U, 0x300050000030002U, 0x100050103U,
  0x1050000U, 0x3010000000500U, 0x200000000000000U, 0x100010104040504U,
  0x402000000U, 0x105040000040001U, 0x400000000050000U, 0x500030100000002U,
  0x400000400U, 0x400010503000000U, 0x100000100000000U, 0x500000003040501U,
  0x500000403020304U, 0x300000104050000U, 0x40003000005U, 0x20000000101U,
  0x0U, 0x3000004020200U, 0x403000000040500U, 0x2020303000000U,
  0x401000000U, 0x5000004030005U, 0x204000000U, 0x200020002020202U,
  0x1000000000000U, 0x400000003020005U, 0x5000200U, 0x5000100030000U,
  0x3000001000002U, 0x40400000400U, 0x10300050000U, 0x100000000050100U,
  0x10004U, 0x1000003000304U, 0x50004000100U, 0x3000000010004U,
  0x402000003010000U, 0x3000202000005U, 0x50000050000U, 0x30005010002U,
  0x2000505010400U, 0x20503000200U, 0x502000400U, 0x405000403000305U,
  0x1000000000200U, 0x4050104000000U, 0x500000405000000U, 0x103000300000500U,
  0x400000000040001U, 0x3030000000000U, 0x402010000000000U, 0x300000000020000U,
  0x50000030400U, 0x100050200000005U, 0x2000000050302U, 0x403010000030002U,
  0x400020000U, 0x505000400010005U, 0x10005000003U, 0x100020001000003U,
  0x50402000000U, 0x300000002050002U, 0x2020004000004U, 0x3000004000000U,
  0x20303000004U, 0x40200050002U, 0x5050101000000U, 0x4000000000204U,
  0x500000004000400U, 0x50300000000U, 0x4000105000500U, 0x305010000000000U,
  0x300000500000001U, 0x400000400000000U, 0x3040000000002U, 0x200040002020205U,
  0x1030000U, 0x4030000040001U, 0x4000003040000U, 0x200000000000000U,
  0x200010000000500U, 0x100000100000001U, 0x300000300000005U, 0x3000100000103U,
  0x300040000000005U, 0x501000405U, 0x100030002050000U, 0x2000502000000U,
  0x302000001000000U, 0x1020000020002U, 0x3000504000002U, 0x2040500000500U,
  0x105000004000003U, 0x101000000U, 0x300000002000202U, 0x10004000000U,
  0x5020400000003U, 0x100000000000300U, 0x2040505U, 0x200000200020001U,
  0x5000003000500U, 0x5010100U, 0x2000501000000U, 0x303010500000000U,
  0x400000000010002U, 0x300000300000000U, 0x200000004000204U, 0x20000010500U,
  0x2040000000005U, 0x300000000020000U, 0x200000000000204U, 0x1000100000000U,
  0x102020000000505U, 0x201040000040005U, 0x103000000000500U, 0x200050000000002U,
  0x3000200000002U, 0x100000005040004U, 0x40000040305U, 0x50000020003U,
  0x205000302U, 0x5000004000405U, 0x4040003000001U, 0x401000400040000U,
  0x202000005U, 0x5000003030000U, 0x4000105040000U, 0x401050305030000U,
  0x302000005U, 0x500020400U, 0x200000002010400U, 0x500040000000000U,
  0x40000050300U, 0x2000003040505U, 0x4U, 0x400000500000501U,
  0x503050000U, 0x10002040000U, 0x101030000U, 0x50005000000U,
  0x3030100U, 0x30000010002U, 0x4020200010000U, 0x2000004000002U,
  0x201000000020001U, 0x4000000030000U, 0x1020000000504U, 0x300000004050201U,
  0x200050005020502U, 0x401000200000005U, 0x50000000000U, 0x10304000005U,
  0x402000003040000U, 0x205000000050005U, 0x1020100000000U, 0x3000004000000U,
  0x1000501020401U, 0x4000000000400U, 0x1000304000000U, 0x100000505000005U,
  0x401020504010000U, 0x200000000000500U, 0x20000040104U, 0x302000000000300U,
  0x100030004000300U, 0x405000004000000U, 0x300000403U, 0x4030505010000U,
  0x1030002000000U, 0x2000004040000U, 0x40502000100U, 0x300000000030201U,
  0x40301U, 0x400030405U, 0x40100030202U, 0x5000200000500U,
  0x500020000040201U, 0x2050300000000U, 0x30000000000U, 0x204000002000000U,
  0x500000000030505U, 0x402030100000000U, 0x100000502000505U, 0x5050101000000U,
  0x502000000000300U, 0x502000000000500U, 0x50000000200U, 0x5000005000000U,
  0x3010505020103U, 0x500000000000000U, 0x40000000004U, 0x400040104U,
  0x403000000010400U, 0x20400000000U, 0x5000003000400U, 0x40000020002U,
  0x1000204000000U, 0x3000400040000U, 0x4030000U, 0x50000050004U,
  0x30105U, 0x4030505050201U, 0x30504020000U, 0x2010000020000U,
  0x203030200000004U, 0x400000000U, 0x300000001000000U, 0x30001000004U,
  0x2040004U, 0x200010400U, 0x3020000000001U, 0x4000000010000U,
  0x403000404U, 0x20202000003U, 0x40000030000U, 0x500000503U,
  0x302010000000003U, 0x20000040005U, 0x4050005000500U, 0x5000200000000U,
  0x5010205000003U, 0x500000004000200U, 0x4010304U, 0x303020100000000U,
  0x1020004U, 0x2050000030003U, 0x100040002000004U, 0x102000300000002U,
  0x40000000000U, 0x50005000302U, 0x50001010000U, 0x501010000U,
  0x40005000004U, 0x300000400000004U, 0x102000500U, 0x200U,
  0x404040004U, 0x300000001000305U, 0x4000105000002U, 0x5040400050000U,
  0x2010300000000U, 0x10103020000U, 0x40000000300U, 0x502010303000000U,
  0x301000500U, 0x305U, 0x4040004U, 0x2030400U,
  0x204000005040104U, 0x400040202000000U, 0x3000000010000U, 0x40301000400U,
  0x5050000000300U, 0x400000000000100U, 0x105050000000400U, 0x10303000000U,
  0x105000000040200U, 0x500000100000000U, 0x100000004000005U, 0x4010000U,
  0x10400000003U, 0x3010002020001U, 0x400040002000000U, 0x300010403050000U,
  0x50002000000U, 0x300050000010403U, 0x400000002040000U, 0x20501000200U,
  0x3020000000000U, 0x101000005000400U, 0x4030200U, 0x4010000020003U,
  0x10003040500U, 0x2010004U, 0x30000U, 0x300000503000003U,
  0x2050400000001U, 0x400000003000002U, 0x200010200U, 0x300020400000000U,
  0x1000000000003U, 0x1000401U, 0x400000402040500U, 0x500000400U,
  0x403020000040000U, 0x301000000040000U, 0x20100000000U, 0x3000000000400U,
  0x305000005000300U, 0x204000000000001U, 0x500000003030500U, 0x500U,
  0x200000100020205U, 0x1000000050304U, 0x102030400000400U, 0x100000000000104U,
  0x4040000U, 0x5000002010201U, 0x500050000000000U, 0x1040000000404U,
  0x100000000030000U, 0x50300040504U, 0x204010005040000U, 0x4030102000000U,
  0x10004000100U, 0x100000501000100U, 0x400030000000005U, 0x400000100000002U,
  0x30000000000U, 0x40005000400U, 0x4030000U, 0x301000503040300U,
  0x2000500040005U, 0x0U, 0x1050002020000U, 0x203000500050000U,
  0x403000000000004U, 0x400040500000001U, 0x400000000000003U, 0x200000300000003U,
  0x500000000000104U, 0x100020300000300U, 0x1050100000002U, 0x401000202020000U,
  0x40000000000U, 0x30000010405U, 0x301050200U, 0x1040000050200U,
  0x400010000000000U, 0x305030000000301U, 0x3000505000002U, 0x500050003000000U,
  0x201000000020500U, 0x500020000U, 0x2000002000001U, 0x200000005010500U,
  0x50000000304U, 0x100000200000004U, 0x504000005000004U, 0x200000400000000U,
  0x200000001000500U, 0x2030100000500U, 0x5000000050400U, 0x1040500000200U,
  0x200000000000405U, 0x10303000001U, 0x300000401000000U, 0x102010004000000U,
  0x304000504000500U, 0x305000000000300U, 0x2000100000000U, 0x403020000000101U,
  0x5030004U, 0x404000004010200U, 0x5000302000000U, 0x500U,
  0x4030200000504U, 0x104000000000000U, 0x5000000020200U, 0x20302020001U,
  0x200000000050000U, 0x504050500000300U, 0x400000000000400U, 0x500000000000103U,
  0x10000000100U, 0x4040305U, 0x100040300000001U, 0x3000405U,
  0x40500U, 0x300040100000105U, 0x20000U, 0x400000000030001U,
  0x100000000000405U, 0x403040300000400U, 0x1010004U, 0x10400000002U,
  0x202000000040000U, 0x200000300000400U, 0x201030001040005U, 0x5050000050000U,
  0x40000U, 0x304U, 0x0U, 0x502010301010000U,
  0x2030504000000U, 0x4020000020004U, 0x50004000005U, 0x501000000000001U,
  0x500000002020300U, 0x1000500000400U, 0x404000003U, 0x204000000040403U,
  0x2010004U, 0x500000000000003U, 0x404010005000203U, 0x400000000U,
  0x2000004050004U, 0x200030003030000U, 0x304000000000000U, 0x2040100000005U,
  0x500000500U, 0x300000500000002U, 0x302000000000203U, 0x1000000000000U,
  0x501050100U, 0x301050005000000U, 0x40000010200U, 0x3000400040401U,
  0x1050000000000U, 0x30305U, 0x400010000U, 0x300000005000004U,
  0x200000105020100U, 0x100000000U, 0x10000020005U, 0x2000000000100U,
  0x40000030102U, 0x500000005U, 0x500000203000004U, 0x20000020000U,
  0x100000304040304U, 0x300000000050000U, 0x10000000003U, 0x100040501030200U,
  0x500000502000000U, 0x200000402000005U, 0x502000300000200U, 0x4000000000002U,
  0x10000020500U, 0x3010000040004U, 0x202020000040004U, 0x50000000004U,
  0x500000301030503U, 0x500000101010102U, 0x2000002000004U, 0x5000000020000U,
  0x50103U, 0x200000300010004U, 0x2050200000400U, 0x100000201000001U,
  0x504000000020200U, 0x300030000000004U, 0x20500000004U, 0x400050200040200U,
  0x502000400000100U, 0x300000103040100U, 0x10200000000U, 0x30000000400U,
  0x5000402010000U, 0x500020000000000U, 0x200000000000002U, 0x303000000000400U,
  0x300000200000300U, 0x40400010500U, 0x400000100U, 0x50200040004U,
  0x4000005040005U, 0x5010000020000U, 0x100020001000000U, 0x1020000000500U,
  0x3000000050002U, 0x100000105020500U, 0x505020003000000U, 0x205050000040000U,
  0x20003U, 0x300000300010500U, 0x100000000010005U, 0x200000402000003U,
  0x500000000010500U, 0x100000000020200U, 0x200000000000003U, 0x300000104000000U,
  0x200050504U, 0x303040004000005U, 0x100000001040104U, 0x100000100050000U,
  0x40000020103U, 0x400040005000005U, 0x300000005000003U, 0x300030100000503U,
  0x2030000U, 0x5010000030500U, 0x30000030000U, 0x5000000050000U,
  0x4010300U, 0x500000002010400U, 0x501010100000003U, 0x3000000000001U,
  0x5U, 0x402000404000202U, 0x5000301000500U, 0x505000005000000U,
  0x300000004000102U, 0x103000000040003U, 0x1020400000000U, 0x504000000010200U,
  0x20205000002U, 0x400000000030101U, 0x200030000030000U, 0x100000400000300U,
  0x200000005040004U, 0x5000003050000U, 0x100000400000000U, 0x304000004030000U,
  0x200000100000003U, 0x3000500U, 0x4000005000505U, 0x200040000U,
  0x5040002000001U, 0x400000001000003U, 0x4050502U, 0x201000000000500U,
  0x204050500U, 0x2010300030000U, 0x1020300000500U, 0x10000000000U,
  0x4020003U, 0x10000020500U, 0x403030000000300U, 0x5000000040400U,
  0x3000002000405U, 0x303020500U, 0x10000040000U, 0x40000040500U,
  0x500000000020002U, 0x5020105000004U, 0x20400000001U, 0x400000200000305U,
  0x404000005000500U, 0x2000000000003U, 0x500020400000005U, 0x2000000030301U,
  0x30003000004U, 0x4030204000005U, 0x300010000U, 0x5000405020003U,
  0x20000000001U, 0x50000040000U, 0x30200000405U, 0x305050400000400U,
  0x3030000000000U, 0x501000000010000U, 0x100000000U, 0x2030000040004U,
  0x2000003000001U, 0x1040305000001U, 0x400000300050002U, 0x30200020200U,
  0x3000000U, 0x50005010002U, 0x200000003030004U, 0x300000001020502U,
  0x3000003000000U, 0x4000000000002U, 0x4000000000003U, 0x5040000000103U,
  0x303000001000003U, 0x4050002U, 0x30200050400U, 0x3040000050000U,
  0x300000003U, 0x2050004000402U, 0x5000000020102U, 0x500000000U,
  0x100010405000403U, 0x20301000405U, 0x203000200050005U, 0x2040000000000U,
  0x40000000000U, 0x5040000020405U, 0x1000000030002U, 0x400000400020005U,
  0x50201000000U, 0x500000101000000U, 0x501000000U, 0x502000005010400U,
  0x300000300000000U, 0x10400000305U, 0x500000005000500U, 0x200000002000500U,
  0x100010004010300U, 0x104030003000000U, 0x200000000000004U, 0x400000004000004U,
  0x300040002000501U, 0x105050100000000U, 0x30000000004U, 0x10000000402U,
  0x304050000U, 0x400010001U, 0x205000000030100U, 0x4010000000000U,
  0x1030000000300U, 0x500000004000100U, 0x5000204000000U, 0x40004040000U,
  0x2050000010400U, 0x405010000000101U, 0x50000020004U, 0x5000000000002U,
  0x2010400000002U, 0x200000004000000U, 0x20202010003U, 0x400040000000500U,
  0x2000400000001U, 0x40301000001U, 0x3050402000000U, 0x305000100050000U,
  0x300000000030003U, 0x100000000040105U, 0x2020000050102U, 0x20100000000U,
  0x500000500020100U, 0x202000004000000U, 0x3050500U, 0x50003040005U,
  0x200050503000000U, 0x204000000000003U, 0x400030004040000U, 0x30000030000U,
  0x305030000010002U, 0x100020005040004U, 0x5000004000200U, 0x4050000000000U,
  0x50002000400U, 0x4040000050001U, 0x4050000000505U, 0x100000004010000U,
  0x20004050100U, 0x200000500000500U, 0x202000000000200U, 0x404000100000100U,
  0x5010101U, 0x500010000010000U, 0x0U, 0x102050101000000U,
  0x5040000030401U, 0x105040000U, 0x403000005000000U, 0x4000403000300U,
  0x1000000000000U, 0x302000000000400U, 0x4000000000203U, 0x30400000200U,
  0x200010004000005U, 0x500000005U, 0x100030103000000U, 0x1010000000503U,
  0x1000000000001U, 0x503000400000004U, 0x100000200040500U, 0x4000000030500U,
  0x300050404000400U, 0x400000003U, 0x104010000050301U, 0x10004020003U,
  0x400040000U, 0x30000020400U, 0x300000400050201U, 0x200030403000000U,
  0x4000000000400U, 0x400020003010200U, 0x4000000U, 0x400050500000004U,
  0x200000405U, 0x5000100030400U, 0x302000000000200U, 0x10500000400U,
  0x30401000003U, 0x10000U, 0x100000100040004U, 0x500010201020001U,
  0x100020400U, 0x100000004020103U, 0x200000000010000U, 0x102010000U,
  0x500000300040505U, 0x100040004U, 0x400030500000000U, 0x203000200000000U,
  0x1000004000004U, 0x402000000050000U, 0x2030500000400U, 0x200010000000000U,
  0x300040400030000U, 0x104U, 0x304000000000502U, 0x400050101000000U,
  0x5000000050300U, 0x303040300U, 0x402000004000000U, 0x20000000003U,
  0x2020000000500U, 0x300010005000100U, 0x400040105040000U, 0x40500020000U,
  0x100030000U, 0x400000400000400U, 0x204020500000302U, 0x1000000000002U,
  0x100000003U, 0x304040000000204U, 0x3050100000300U, 0x2000000000000U,
  0x304010100040101U, 0x4020000000000U, 0x500000400000003U, 0x500000301020000U,
  0x5030000U, 0x20002000500U, 0x301030000U, 0x102010000000000U,
  0x300020500000303U, 0x500050000000000U, 0x204000003010000U, 0x4000100040000U,
  0x1050000000000U, 0x300050400000000U, 0x3000201050500U, 0x400000100000004U,
  0x5000200U, 0x30000040003U, 0x300020000010102U, 0x10100000000U,
  0x202010000050000U, 0x201000500U, 0x105000504030000U, 0x100000002000000U,
  0x200030000010000U, 0x200000000030005U, 0x10000000504U, 0x200000000000000U,
  0x40500000000U, 0x2050000000004U, 0x2010400000000U, 0x100000000000005U,
  0x101040501010000U, 0x50300U, 0x4020005U, 0x4050003020100U,
  0x4000400000100U, 0x500000500020401U, 0x50204000000U, 0x300000000020000U,
  0x202000000010000U, 0x300000000040300U, 0x304000001000000U, 0x3030002000005U,
  0x200000000000305U, 0x400000400050002U, 0x40405U, 0x100030100000300U,
  0x405030400000300U, 0x20000U, 0x500000500000200U, 0x2030001020000U,
  0x3000000000000U, 0x400000004050002U, 0x30001000300U, 0x200000000020303U,
  0x502020000040001U, 0x3000400U, 0x2030205010000U, 0x403020000040000U,
  0x3000200U, 0x305050300000302U, 0x400010001020002U, 0x303000103000000U,
  0x200040500000000U, 0x10302010000U, 0x101000400050004U, 0x404000000040001U,
  0x100000000020005U, 0x20000000000U, 0x104000300U, 0x301030005000000U,
  0x200000101040200U, 0x30003000500U, 0x3U, 0x100000000010300U,
  0x2040003000000U, 0x300000200000002U, 0x100000000040002U, 0x20000000100U,
  0x300000500000004U, 0x4000000030005U, 0x100040001000002U, 0x501000000000502U,
  0x400000401000000U, 0x300010003000000U, 0x103000400000000U, 0x30003000001U,
  0x500U, 0x305000003000200U, 0x2050100000003U, 0x2000000050505U,
  0x2000303000000U, 0x40003U, 0x1000001020002U, 0x4000005U,
  0x5000501040300U, 0x203000003U, 0x30002000005U, 0x2000000010504U,
  0x204000000U, 0x50000040004U, 0x3000000050000U, 0x300040301000100U,
  0x300000100000004U, 0x200000300U, 0x300050000000201U, 0x504000000U,
  0x50405U, 0x20400020204U, 0x400050000030000U, 0x40300000200U,
  0x5000000000005U, 0x40005000004U, 0x300000201000400U, 0x5000201050000U,
  0x20005000000U, 0x500000302000004U, 0x104030000000002U, 0x40001000000U,
  0x201000002000501U, 0x200050000050001U, 0x502030000000500U, 0x100000003000201U,
  0x105000402050302U, 0x1000500000000U, 0x503010200U, 0x201000000U,
  0x400040000000300U, 0x500000304U, 0x205010000000000U, 0x50000000000U,
  0x301010400000500U, 0x5000001000000U, 0x205010400000001U, 0x4030100000500U,
  0x4050000U, 0x50500000304U, 0x100000100020000U, 0x400020501020000U,
  0x10000000000U, 0x10000000200U, 0x2020000050300U, 0x30004000000U,
  0x4040000040100U, 0x30400010000U, 0x500000500040000U, 0x400000000010005U,
  0x20000000505U, 0x5010500000200U, 0x2000004000205U, 0x30001U,
  0x103000000000100U, 0x50000000200U, 0x204000000000200U, 0x403030000000100U,
  0x3000400000004U, 0x304000002U, 0x104000003040201U, 0x104050000010200U,
  0x200U, 0x400000005000001U, 0x30300040100U, 0x304000003000000U,
  0x504000001U, 0x100000003050000U, 0x400040000000103U, 0x301000000000201U,
  0x10004000002U, 0x4000004030504U, 0x302020000000002U, 0x5000001000300U,
  0x40003050400U, 0x201010500000000U, 0x400040000000503U, 0x204000405030000U,
  0x40303000500U, 0x1010100050000U, 0x5000302000005U, 0x30200000003U,
  0x20000000000U, 0x4000300030300U, 0x3010000040000U, 0x103000400000100U,
  0x1020000U, 0x500000004000004U, 0x102000005000000U, 0x204040000000003U,
  0x400000400000005U, 0x401010002030200U, 0x4000000000005U, 0x5000000010000U,
  0x30200000004U, 0x503000402040000U, 0x40000000003U, 0x5000000000005U,
  0x2040002010200U, 0x1000300000003U, 0x3010104040000U, 0x300000400000000U,
  0x20401020100U, 0x400000000000000U, 0x300050100U, 0x400030103000001U,
  0x400000000000400U, 0x20400040000U, 0x400040300U, 0x400000001020000U,
  0x20104U, 0x300010005050400U, 0x500000005000000U, 0x200050300000200U,
  0x100000400000003U, 0x50100030000U, 0x400000500050500U, 0x1000004000205U,
  0x405000000000000U, 0x400040400000002U, 0x10000000201U, 0x5000400U,
  0x303040200U, 0x400010200040200U, 0x500030002000000U, 0x50403050000U,
  0x3020400000001U, 0x103000000U, 0x40001000005U, 0x30305U,
  0x301000000000400U, 0x10001000000U, 0x20002000403U, 0x102020000U,
  0x2050004U, 0x2030105000002U, 0x40005000004U, 0x401050202010300U,
  0x200050000030002U, 0x100000500000001U, 0x5000000000404U, 0x402030000U,
  0x40000040000U, 0x50000000204U, 0x500040400U, 0x50403040205U,
  0x504000500U, 0x4040500U, 0x1000000010400U, 0x4050000000300U,
  0x4010100U, 0x30300U, 0x500050000000400U, 0x500020000U,
  0x400000003010001U, 0x5020002U, 0x304000005000004U, 0x40000010000U,
  0x103000004U, 0x2020100040103U, 0x100030200000000U, 0x500000001030000U,
  0x401030000000104U, 0x4000400U, 0x30000030005U, 0x1000203030301U,
  0x40000U, 0x100000004020000U, 0x202010000050004U, 0x500000400000001U,
  0x403000000000503U, 0x400010400000000U, 0x200000500U, 0x400000501000003U,
  0x1000502000403U, 0x400040000U, 0x50402040005U, 0x1040005000505U,
  0x4000002000000U, 0x2000100000000U, 0x5000000030100U, 0x400050002000005U,
  0x200040400U, 0x50304030000U, 0x500000004000203U, 0x200000003000504U,
  0x400010002000005U, 0x305000000040000U, 0x402010000000101U, 0x400000300040003U,
  0x3020000U, 0x200050000010400U, 0x200010000U, 0x30100000503U,
  0x50000040100U, 0x3010500000304U, 0x10000000000U, 0x505010000000005U,
  0x20200000002U, 0x202000000000000U, 0x102000002000000U, 0x400000001040000U,
  0x201000004040000U, 0x104030000020000U, 0x500020003U, 0x2000002000005U,
  0x302000003000500U, 0x5000100050004U, 0x4000000000500U, 0x400000000020005U,
  0x1000005000103U, 0x304050304000004U, 0x20000050000U, 0x201020000000001U,
  0x300050000U, 0x50003010002U, 0x4000404U, 0x100000305020405U,
  0x500020000000002U, 0x101000003U, 0x2030200U, 0x200010002050300U,
  0x205040000010000U, 0x20001000502U, 0x4000104000001U, 0x103000000000105U,
  0x30100010000U, 0x20005040200U, 0x403000000010500U, 0x2050400000101U,
  0x1010000000004U, 0x304030103000000U, 0x10100000005U, 0x3000000020000U,
  0x5000000050104U, 0x4050403U, 0x400010000050002U, 0x500000104U,
  0x402000000000500U, 0x200000300000500U, 0x2000500000301U, 0x1000000010000U,
  0x104000000050005U, 0x202030000030000U, 0x1030200000400U, 0x100030000020201U,
  0x500000000020300U, 0x2000000000000U, 0x10400020500U, 0x205010000010000U,
  0x100040503050000U, 0x3040000040000U, 0x20200U, 0x200000000050402U,
  0x4050000050101U, 0x400020000000300U, 0x204000000010000U, 0x200030104U,
  0x202000000000005U, 0x300010401020303U, 0x4000000000000U, 0x100040500U,
  0x500000200U, 0x200000001000001U, 0x200010200000200U, 0x203000101000000U,
  0x4000500000000U, 0x200000200U, 0x30002000100U, 0x203000001000001U,
  0x400000400000000U, 0x305000000010305U, 0x10503000000U, 0x401050000050300U,
  0x5000000000400U, 0x502010404040003U, 0x300000005050000U, 0x20300010000U,
  0x3000000000000U, 0x200000000050404U, 0x3000005000500U, 0x105010100000000U,
  0x405000003000400U, 0x500030000030001U, 0x30000040004U, 0x200000004020003U,
  0x104030000U, 0x300000000050105U, 0x50000000400U, 0x3000005000004U,
  0x50505000005U, 0x501000000000000U, 0x401000004000400U, 0x5030501000000U,
  0x300000003000004U, 0x1000104U, 0x400000004000305U, 0x201000400U,
  0x1000202000004U, 0x300040005000000U, 0x403000000U, 0x4000005030000U,
  0x101000300U, 0x100000100050000U, 0x4010000040000U, 0x500000300000000U,
  0x500000500020001U, 0x400010000U, 0x1000003000300U, 0x201000002000100U,
  0x305050000040000U, 0x10200000300U, 0x2020000000000U, 0x400000400000503U,
  0x10100010000U, 0x40000000000U, 0x20404U, 0x500020204000100U,
  0x400000003020000U, 0x200010000020005U, 0x202000002000000U, 0x10000000204U,
  0x400000005000004U, 0x30000010000U, 0x100000300050200U, 0x3030000000005U,
  0x200000000050200U, 0x500000000020504U, 0x30004000004U, 0x100000200010400U,
  0x502000000000003U, 0x4000000000403U, 0x400030400000400U, 0x30000040004U,
  0x403050000010000U, 0x2050200000204U, 0x200000500030000U, 0x103020000U,
  0x502000003030203U, 0x301000001000400U, 0x5010000000000U, 0x200050400000000U,
  0x505030400000004U, 0x3000304000000U, 0x205000003000000U, 0x102000000020200U,
  0x10500000000U, 0x30402U, 0x4040305030100U, 0x5030400000103U,
  0x3000000000000U, 0x1000400000300U, 0x3000504050504U, 0x300010000000000U,
  0x1000402000000U, 0x50000000000U, 0x4040000010002U, 0x5040100030000U,
  0x3000200000002U, 0x40100U, 0x1040000000101U, 0x504000001000000U,
  0x400000300040000U, 0x400000300000002U, 0x501020002010000U, 0x400010400U,
  0x200050000000004U, 0x5050000000000U, 0x50005U, 0x400020004000002U,
  0x10100030000U, 0x300000503000000U, 0x50500050000U, 0x200000003000301U,
  0x100000500050000U, 0x20303020000U, 0x4050000000501U, 0x0U,
  0x300040405U, 0x4040005U, 0x4010101000000U, 0x50000000500U,
  0x301000005U, 0x10400000205U, 0x402010000000001U, 0x200030100040200U,
  0x300010000U, 0x500000000020100U, 0x303040500U, 0x4000000000101U,
  0x500000000040200U, 0x300030201U, 0x200000400U, 0x3030500000400U,
  0x20000000400U, 0x100010300030503U, 0x304040000000000U, 0x500000204000000U,
  0x3030501050000U, 0x2000005000302U, 0x100000000000500U, 0x302040100000305U,
  0x501000000U, 0x2030004U, 0x200000005010000U, 0x50000010000U,
  0x500000305000003U, 0x200010500000000U, 0x400030000030404U, 0x400000000040002U,
  0x301020000000300U, 0x30005000004U, 0x300040400U, 0x1050000010001U,
  0x401000005000001U, 0x4000000000302U, 0x503000005000000U, 0x4010000000003U,
  0x505010100000302U, 0x200000500000000U, 0x205010500000500U, 0x30400000005U,
  0x300020000010100U, 0x500000000U, 0x300030004010400U, 0x3000300040000U,
  0x201000000020100U, 0x2000003000000U, 0x400000000010300U, 0x400010001U,
  0x503040300000005U, 0x30002000002U, 0x400000100040003U, 0x100000000000203U,
  0x200040000U, 0x500000000050001U, 0x5000000010002U, 0x300000002000000U,
  0x3010000000500U, 0x201040500U, 0x200030100000002U, 0x4010400000200U,
  0x502000000U, 0x2030001000003U, 0x20001000001U, 0x400010203U,
  0x500030000U, 0x400030300000300U, 0x20000000004U, 0x50402000500U,
  0x50500U, 0x305000100050000U, 0x50004U, 0x200040504U,
  0x500000000000301U, 0x40002000405U, 0x20000000005U, 0x1000200000404U,
  0x102020000000400U, 0x200000001000000U, 0x40503000404U, 0x200000000000003U,
  0x500010000U, 0x5050400040205U, 0x501000002U, 0x501000000000000U,
  0x100000403030400U, 0x504030000U, 0x400010001000300U, 0x200020000050004U,
  0x203000000050000U, 0x3000003000500U, 0x40405000004U, 0x300000100020000U,
  0x500000000000400U, 0x400000300000400U, 0x30400000400U, 0x4000503050000U,
  0x200040000000500U, 0x203000003000000U, 0x400000500000000U, 0x30005000005U,
  0x1000300020401U, 0x503010000050400U, 0x4000400000003U, 0x505000000000000U,
  0x20100000000U, 0x300000000000001U, 0x4000401050000U, 0x500U,
  0x500000003040400U, 0x2000001000000U, 0x2020001010003U, 0x5030500U,
  0x200010000040000U, 0x5050005U, 0x50001010004U, 0x2030000040500U,
  0x1000000000005U, 0x3000004010001U, 0x3000003020000U, 0x400000003030001U,
  0x502040000030001U, 0x30002000501U, 0x104000000030002U, 0x50400050000U,
  0x10000000204U, 0x500000200020002U, 0x5000004010500U, 0x4000502000000U,
  0x2000000040400U, 0x4020000010005U, 0x300000205U, 0x405000001000001U,
  0x300000500010501U, 0x4050001000002U, 0x400050000030002U, 0x503000504030000U,
  0x0U, 0x300000004000500U, 0x1020000000005U, 0x10204000300U,
  0x500000405010000U, 0x403040102U, 0x50000000300U, 0x2000500U,
  0x504000502030003U, 0x500000400050000U, 0x3000300U, 0x500000000010000U,
  0x4000203U, 0x1020404000300U, 0x50000050004U, 0x100000300000100U,
  0x201000200000000U, 0x20000000500U, 0x500000400000003U, 0x100000003000001U,
  0x203000400000000U, 0x100000100010404U, 0x30005000002U, 0x402050301000000U,
  0x1000003000000U, 0x100000500000400U, 0x400000400010100U, 0x10500000400U,
  0x500040003040303U, 0x100040000000003U, 0x2050002U, 0x400000000050001U,
  0x30000030000U, 0x302010000030005U, 0x3000204000500U, 0x505020000030000U,
  0x40400000000U, 0x30300000000U, 0x5010405010100U, 0x4000100U,
  0x30002000001U, 0x30100040500U, 0x300010100000002U, 0x3000000000004U,
  0x402010000000400U, 0x2000400010201U, 0x5000005040400U, 0x404000005U,
  0x3000000U, 0x3000000U, 0x200000400000303U, 0x50201000000U,
  0x205000004000000U, 0x502000000U, 0x300000100050002U, 0x4020000030005U,
  0x50500000400U, 0x404040000U, 0x40005000000U, 0x50000010003U,
  0x500000000U, 0x2000200040000U, 0x300000200000002U, 0x200000203000000U,
  0x3040000000000U, 0x201000002000300U, 0x305050000040000U, 0x100030000000404U,
  0x200050005U, 0x400020101030103U, 0x200000000U, 0x503000200010402U,
  0x100040000000005U, 0x401000000050001U, 0x300000004U, 0x40004000000U,
  0x200000005040500U, 0x20200030000U, 0x4000000020004U, 0x10002000204U,
  0x2040000050400U, 0x50000000003U, 0x100000102000504U, 0x20100050000U,
  0x100000505020000U, 0x300000002010403U, 0x3000002050000U, 0x305000003000003U,
  0x500000004000002U, 0x302000000000305U, 0x302000100000004U, 0x503000000050000U,
  0x401000002000000U, 0x5010000000100U, 0x405000200000005U, 0x2000000050005U,
  0x203000000U, 0x501000005000004U, 0x40003030305U, 0x1050000000402U,
  0x200010000050002U, 0x40302010000U, 0x401000000050000U, 0x2020000U,
  0x500000401000400U, 0x400000500050000U, 0x200000000000001U, 0x1040000000003U,
  0x30200000005U, 0x304000503000004U, 0x5000201040000U, 0x200000001U,
  0x10000000300U, 0x500040200U, 0x400040000010005U, 0x301050000010000U,
  0x200000005020000U, 0x20000000504U, 0x10304000003U, 0x5000003000001U,
  0x102030000U, 0x503040400U, 0x40200000002U, 0x5000000030003U,
  0x300010200000500U, 0x300000300030102U, 0x5000000000100U, 0x502000401U,
  0x3020400040000U, 0x403000103000000U, 0x5000000040002U, 0x2040000000005U,
  0x50000050300U, 0x2020004000003U, 0x304000400U, 0x500000400000303U,
  0x4000002000002U, 0x5000004U, 0x500000001040003U, 0x401050400020400U,
  0x1030200000000U, 0x300000000000000U, 0x4010400010500U, 0x200050000000000U,
  0x3050000000000U, 0x20004040000U, 0x100000003040000U, 0x401000000050001U,
  0x204030000000000U, 0x50204000000U, 0x20003000202U, 0x301050300000004U,
  0x4000000000000U, 0x203000101000005U, 0x50001U, 0x405000004000404U,
  0x40002U, 0x50500000004U, 0x500000002000001U, 0x3000000030100U,
  0x5000105U, 0x100010200050102U, 0x20502000000U, 0x1040000U,
  0x100000000050002U, 0x401020300030000U, 0x300000200000000U, 0x400000404000005U,
  0x305010005000000U, 0x502010000000000U, 0x400000002000000U, 0x502030000000400U,
  0x401000000000004U, 0x100040005020303U, 0x104000004U, 0x300040404030004U,
  0x4000000000004U, 0x400030000040500U, 0x50000000400U, 0x101000000030204U,
  0x3020100000000U, 0x5030000020005U, 0x40000000303U, 0x4000303000401U,
  0x300050000000400U, 0x300000100030401U, 0x3050000010004U, 0x403050001050400U,
  0x100000000000001U, 0x205000000U, 0x5000000010005U, 0x104050400U,
  0x5000001040000U, 0x100000002000505U, 0x5050000000004U, 0x5000004000300U,
  0x5000201030404U, 0x40500000100U, 0x40502U, 0x5010000000004U,
  0x200000103000002U, 0x301000100020000U, 0x4000200000000U, 0x500000000040004U,
  0x100000001030500U, 0x10001000000U, 0x104010103050000U, 0x101000000000300U,
  0x4050002000000U, 0x3000100000000U, 0x20304000000U, 0x3040400000000U,
  0x3050000000500U, 0x201000003000005U, 0x500040000000000U, 0x100000000000000U,
  0x400000300030202U, 0x20000000502U, 0x3000000000003U, 0x300000100000105U,
  0x30005000305U, 0x200050300040000U, 0x40501000000U, 0x10002010400U,
  0x300000300010000U, 0x403020002000500U, 0x40000000002U, 0x10003000203U,
  0x300000000020004U, 0x50003040000U, 0x102000005000304U, 0x3000500U,
  0x4040501000000U, 0x3000000000202U, 0x3040400U, 0x5000003000201U,
  0x5000000000305U, 0x4000200020000U, 0x100000003030000U, 0x200000005030003U,
  0x500020000040000U, 0x20000010003U, 0x4000205010000U, 0x4010000000405U,
  0x100040000000000U, 0x2000500000302U, 0x303000000U, 0x2000100000400U,
  0x30002000005U, 0x40300030000U, 0x1010105000001U, 0x3030500000005U,
  0x203000000U, 0x105000004000202U, 0x400000004020503U, 0x302000000010000U,
  0x30300010002U, 0x5000000U, 0x503020000010004U, 0x10004010201U,
  0x40000U, 0x400050000010500U, 0x400000104020000U, 0x4000004000402U,
  0x403000000000002U, 0x1040000000005U, 0x300000400U, 0x1020000040004U,
  0x2000003010000U, 0x300000000030000U, 0x3020000000300U, 0x100000000000200U,
  0x20000000003U, 0x202000004000000U, 0x1000200000300U, 0x20204030000U,
  0x403000000010000U, 0x2U, 0x205U, 0x100020002000000U,
  0x400000000U, 0x5000000020500U, 0x2040400000504U, 0x2050402000000U,
  0x302000004000002U, 0x40304000000U, 0x4050000000000U, 0x30000000402U,
  0x4050000000002U, 0x101030000000005U, 0x30004000101U, 0x200000500000203U,
  0x5010404000000U, 0x203000002000004U, 0x503000000000003U, 0x1000000020004U,
  0x304000002040000U, 0x100010000000000U, 0x300000500000000U, 0x100000000050000U,
  0x1000400000102U, 0x403000304000002U, 0x1000100000000U, 0x3000000000004U,
  0x400000000020501U, 0x500000005000000U, 0x403000000040104U, 0x3020404U,
  0x10100000004U, 0x1000000050500U, 0x5050400U, 0x305000001030000U,
  0x200000000000100U, 0x404050000000004U, 0x200U, 0x1000002020400U,
  0x500000000000000U, 0x400000100040000U, 0x40500040000U, 0x303030200000201U,
  0x4000400000000U, 0x304000003000100U, 0x400000500020104U, 0x404040302000000U,
  0x1000400000005U, 0x5000005000000U, 0x2030005000200U, 0x400050000040000U,
  0x3050500U, 0x5000000000001U, 0x500020105040000U, 0x10304000000U,
  0x5000004U, 0x505000002050005U, 0x40001040005U, 0x1000004000000U,
  0x100000000040500U, 0x20000000105U, 0x300010200000201U, 0x102010000U,
  0x200050403000000U, 0x10000040004U, 0x50005000402U, 0x5010005000102U,
  0x100000400020205U, 0x100040000U, 0x5000005000200U, 0x30000U,
  0x500000303000000U, 0x305000000040001U, 0x100050300000004U, 0x505000000U,
  0x405040003000000U, 0x301000002000000U, 0x1050003050001U, 0x203020500000200U,
  0x200010500000003U, 0x30300000004U, 0x300020000000000U, 0x400000000010100U,
  0x20100U, 0x5040200U, 0x200000000010400U, 0x5000003U,
  0x300000402000201U, 0x300050000U, 0x400050202000000U, 0x104010003U,
  0x105010005000000U, 0x500000003U, 0x40004030000U, 0x500000000000503U,
  0x20000010000U, 0x5000004000300U, 0x300000501010100U, 0x1010000000003U,
  0x5000004040504U, 0x50000030000U, 0x405000400000002U, 0x40001U,
  0x200000000020202U, 0x301040105000000U, 0x2000000000100U, 0x3000003000002U,
  0x3040204030000U, 0x30000030000U, 0x202000003010003U, 0x400050000040000U,
  0x300000000010000U, 0x4000400000303U, 0x300000000000500U, 0x500000000020004U,
  0x103000300U, 0x1010000000002U, 0x4000100020000U, 0x400000300040300U,
  0x50100000500U, 0x200000005030304U, 0x0U, 0x302000101000300U,
  0x501000000000002U, 0x20200030500U, 0x1010003010000U, 0x3050500000000U,
  0x3000503000004U, 0x300000004U, 0x200000100U, 0x4000502010300U,
  0x503000200U, 0x40400000100U, 0x404000000010500U, 0x504000402000000U,
  0x5000500040300U, 0x500040001000005U, 0x30000010500U, 0x100000504000000U,
  0x301000303000000U, 0x400000000000401U, 0x40000000000U, 0x400050004020000U,
  0x404010000U, 0x3050000050000U, 0x5040500000000U, 0x102000000000004U,
  0x301050000040000U, 0x2000000U, 0x105000500U, 0x304040300000400U,
  0x10000020001U, 0x401020000000502U, 0x30002040000U, 0x400000003020100U,
  0x5000000050002U, 0x3050504U, 0x500000500000300U, 0x10000000001U,
  0x50000000003U, 0x300020000000504U, 0x101000001U, 0x500040405050302U,
  0x205000000000200U, 0x303000005000001U, 0x205020000U, 0x201000004000003U,
  0x302020001U, 0x50500000001U, 0x3000000010002U, 0x102030200010400U,
  0x1000202000005U, 0x3U, 0x500000003000003U, 0x101050000000000U,
  0x100000000050200U, 0x40000000303U, 0x4000005000002U, 0x100010001020000U,
  0x40000050000U, 0x500000102000400U, 0x100000002U, 0x303000405000100U,
  0x40001000000U, 0x1000500020301U, 0x205000000020300U, 0x50403U,
  0x200010200U, 0x30000010005U, 0x100000000040502U, 0x500000002050300U,
  0x400050000000001U, 0x401040300000003U, 0x301000000010400U, 0x301000000U,
  0x20000030200U, 0x300000000050000U, 0x503000304000005U, 0x401050100000003U,
  0x203040005U, 0x1000402030000U, 0x0U, 0x5000000020200U,
  0x3000000030000U, 0x4000000000400U, 0x1020202000000U, 0x10003010301U,
  0x300040003030002U, 0x100020000U, 0x305010004U, 0x5030001000000U,
  0x100000000U, 0x100000000000500U, 0x5000003000000U, 0x1000003050100U,
  0x200000400000001U, 0x200000004U, 0x500010004040000U, 0x2000003000000U,
  0x104010000000300U, 0x5000000000003U, 0x100000100000000U, 0x2000504050500U,
  0x100020502000000U, 0x300000500050000U, 0x204000000040300U, 0x201000100U,
  0x3000002U, 0x400040002000300U, 0x50001000000U, 0x300030500050300U,
  0x400000000000100U, 0x1000500010000U, 0x10501000500U, 0x504000004000003U,
  0x3040200000003U, 0x400040303U, 0x400000305030400U, 0x10501U,
  0x200000400020003U, 0x30200030003U, 0x400000400030000U, 0x504000000000003U,
  0x2000000000000U, 0x30205000403U, 0x103000300000000U, 0x30200000500U,
  0x405010000000200U, 0x405000400000100U, 0x300030000050000U, 0x1000300000000U,
  0x201040500000000U, 0x500000204000502U, 0x300010400000002U, 0x4020000U,
  0x400030000020005U, 0x103050000U, 0x501050000000000U, 0x200040500000100U,
  0x405000004000000U, 0x2000101U, 0x100020300000003U, 0x302000000050000U,
  0x305000000000004U, 0x10002000000U, 0x200000001000103U, 0x3020300U,
  0x30001040102U, 0x2000200040504U, 0x20000040001U, 0x500020000000200U,
  0x5000100000000U, 0x500000301000004U, 0x200040305030000U, 0x302020200010004U,
  0x100000000000100U, 0x4000000000200U, 0x40000050403U, 0x2020000000000U,
  0x204050005040000U, 0x3030000000500U, 0x403030002030000U, 0x200000000000401U,
  0x200030000000003U, 0x200000200000001U, 0x20100U, 0x300000500000001U,
  0x20000000403U, 0x4020000U, 0x400040003050503U, 0x1000000000001U,
  0x30004000005U, 0x504050101000000U, 0x5000200U, 0x404000004000001U,
  0x5000003000100U, 0x400010501020500U, 0x4000001050000U, 0x3000401040000U,
  0x103040000000004U, 0x5040004U, 0x200010400000400U, 0x500000103U,
  0x50003040201U, 0x400000000020000U, 0x405000003000403U, 0x5000501000003U,
  0x100000000000300U, 0x200050000U, 0x201000000U, 0x505010000050000U,
  0x30001010401U, 0x10005U, 0x300000202000504U, 0x402000000000000U,
  0x30400000500U, 0x402050200000400U, 0x3000002000000U, 0x100000001000005U,
  0x500000500050105U, 0x5000000000101U, 0x40004000005U, 0x500030501050101U,
  0x401000200000000U, 0x4010202000000U, 0x10300000000U, 0x20002000002U,
  0x100010004U, 0x500040205000003U, 0x500000002U, 0x300000203000504U,
  0x3030002000000U, 0x3050200000004U, 0x5000000050300U, 0x3050000000304U,
  0x1010000020003U, 0x400000200000001U, 0x30100000302U, 0x300010000020000U,
  0x200000002010002U, 0x404010000000105U, 0x2000400000000U, 0x300000200040100U,
  0x4050000050000U, 0x2050204000000U, 0x50400000002U, 0x3000000000301U,
  0x303000000000002U, 0x2030000040105U, 0x5000002030400U, 0x5010000000100U,
  0x30005000200U, 0x50000040104U, 0x40000000004U, 0x3050000020400U,
  0x505000003000000U, 0x300030502020000U, 0x10002000000U, 0x104040100000400U,
  0x2000405U, 0x3050300000403U, 0x1050400000000U, 0x3000000040001U,
  0x200000400000200U, 0x502010100000200U, 0x300030000010100U, 0x4000004000000U,
  0x400000002000500U, 0x200000105000400U, 0x200020400000501U, 0x30000000000U,
  0x1000100000005U, 0x100000200020005U, 0x10003U, 0x405050200000001U,
  0x200020400000000U, 0x100010005000004U, 0x400020202000000U, 0x300000001U,
  0x305000000000001U, 0x200000000020102U, 0x500000002020000U, 0x3000000000100U,
  0x100000100000401U, 0x103000300020005U, 0x2010000000200U, 0x40000050200U,
  0x204000300U, 0x50300050203U, 0x402000000000100U, 0x3020000000100U,
  0x3000004000000U, 0x20500000000U, 0x302000000U, 0x104000001050200U,
  0x1000004030000U, 0x5000005010000U, 0x40004050002U, 0x3000401000000U,
  0x100050000030003U, 0x50000000405U, 0x100050000000200U, 0x300040003000000U,
  0x3020500000300U, 0x403030000000400U, 0x40100040004U, 0x4000100000000U,
  0x400000000000504U, 0x500010002010000U, 0x200000100000000U, 0x40200000003U,
  0x200000300040400U, 0x50002U, 0x5000505030301U, 0x500000004010005U,
  0x405000002010000U, 0x50003U, 0x200030201040004U, 0x404040001000000U,
  0x20000U, 0x3020400010100U, 0x400040000000005U, 0x1000500000004U,
  0x303000500000000U, 0x500000000040200U, 0x100020001000000U, 0x3040100000000U,
  0x40101040000U, 0x3000400000000U, 0x402020202000100U, 0x30200000500U,
  0x200050400U, 0x200000100040100U, 0x5020405U, 0x20100000000U,
  0x405050000U, 0x301040000010400U, 0x10500000003U, 0x50004030000U,
  0x1000103U, 0x200050504000105U, 0x50100000000U, 0x3020200000000U,
  0x5000200000005U, 0x100000500000400U, 0x100000102030003U, 0x1000500000400U,
  0x200010000050200U, 0x10500000000U, 0x303000104000000U, 0x3040100000000U,
  0x2030300U, 0x2030500000001U, 0x3020000030003U, 0x200000200000001U,
  0x10000010003U, 0x400000005050001U, 0x100000200040003U, 0x100000300000004U,
  0x303000003000000U, 0x3050100000500U, 0x5050004000400U, 0x204000000040300U,
  0x5040303000000U, 0x401000003000400U, 0x4020304000500U, 0x20205000000U,
  0x5000000010200U, 0x100030004U, 0x1040500030204U, 0x3000102000003U,
  0x200050400050000U, 0x5000005000000U, 0x30000000003U, 0x103050000030400U,
  0x101030005000002U, 0x405000000000004U, 0x304000000U, 0x305000002000500U,
  0x500000000000001U, 0x503010300000000U, 0x50001000003U, 0x100030300U,
  0x400000002000400U, 0x5000500000000U, 0x4000000U, 0x305010000000002U,
  0x100040402010000U, 0x3000002U, 0x50405000004U, 0x2000104040500U,
  0x30000000000U, 0x100050105010405U, 0x300010300010000U, 0x500000000U,
  0x10401040002U, 0x104020000U, 0x300000300000404U, 0x100000000050503U,
  0x104030500000200U, 0x400000001U, 0x4000000020001U, 0x4040000U,
  0x400040201020100U, 0x40100000000U, 0x500000000020104U, 0x302030000010000U,
  0x1030000U, 0x304000000000004U, 0x3000000010002U, 0x404040200000200U,
  0x300000100000002U, 0x50003000000U, 0x4000103040404U, 0x405000100000003U,
  0x20000000000U, 0x500040504000000U, 0x30001020004U, 0x1020300000500U,
  0x401030000000002U, 0x400000205040000U, 0x30000000104U, 0x3000302000000U,
  0x3000000000401U, 0x104000000000505U, 0x200000000000200U, 0x10001000501U,
  0x400000000000503U, 0x100000300010002U, 0x202000001000204U, 0x50003000000U,
  0x4050002010000U, 0x100000000000100U, 0x500000000U, 0x502000000040002U,
  0x300000002000204U, 0x404000001030000U, 0x204020005000000U, 0x30000050004U,
  0x5040001000100U, 0x300000104000000U, 0x4000000030405U, 0x200040004050000U,
  0x100000000U, 0x303000000U, 0x3040105030200U, 0x2020000000400U,
  0x300000000000001U, 0x30102020000U, 0x300000001000100U, 0x0U,
  0x3010001U, 0x2000300U, 0x30200000105U, 0x3020200000000U,
  0x401000000000200U, 0x505000401000000U, 0x20000000500U, 0x300000400000002U,
  0x50200030000U, 0x3050000010001U, 0x3030000020200U, 0x303000003000300U,
  0x300030100000501U, 0x100000005000000U, 0x500020403U, 0x400030400U,
  0x405020000000001U, 0x504000001000000U, 0x101000300000002U, 0x20500000000U,
  0x304030003000002U, 0x3010400000000U, 0x30500020000U, 0x500000000000004U,
  0x100040004000105U, 0x50400000300U, 0x200000004030100U, 0x2010100000100U,
  0x402000000000500U, 0x40404000000U, 0x100000300000302U, 0x402000400000000U,
  0x2010500000000U, 0x3010300000000U, 0x400000400000000U, 0x400020300000103U,
  0x4000300050000U, 0x300040100000400U, 0x105000000040500U, 0x2000003000300U,
  0x3000000000000U, 0x1000000040400U, 0x1030000000400U, 0x5000001U,
  0x302020100U, 0x3000300U, 0x400030500050000U, 0x2030000010100U,
  0x20004030200U, 0x2000000040000U, 0x3010102000003U, 0x400010000000000U,
  0x40300000005U, 0x104050300000500U, 0x300040005030000U, 0x305000003020000U,
  0x300000000020100U, 0x301000002000004U, 0x204010001U, 0x402000500U,
  0x103000000020000U, 0x5000005000505U, 0x402000200U, 0x500020400030003U,
  0x203010000000002U, 0x103000001U, 0x20000000400U, 0x100000001030400U,
  0x400020000U, 0x3000200000004U, 0x3000100U, 0x40002010403U,
  0x205030505000000U, 0x104000005U, 0x50005000302U, 0x50000040001U,
  0x400000401010000U, 0x102020005030000U, 0x3U, 0x40105050000U,
  0x500040000020004U, 0x300020002U, 0x3000004020105U, 0x2000203000001U,
  0x2000002030000U, 0x2000402000000U, 0x500000501000005U, 0x300000000U,
  0x304000005000400U, 0x3050001030000U, 0x400040501000000U, 0x20004050000U,
  0x40003010500U, 0x300000004010102U, 0x200000000010004U, 0x400000000040304U,
  0x50205000400U, 0x50004000100U, 0x103000000040001U, 0x1000005000004U,
  0x40300U, 0x405000100000004U, 0x1020200000400U, 0x400000505000003U,
  0x100000004050000U, 0x3000000000004U, 0x400000500010500U, 0x40003U,
  0x300000001010001U, 0x2050100000003U, 0x200000004020400U, 0x100000005000400U,
  0x4000004050000U, 0x300000002010400U, 0x500050400000002U, 0x202020105000000U,
  0x4000000040002U, 0x1040500000004U, 0x404000100040000U, 0x100000504000000U,
  0x100000300010000U, 0x3000000000001U, 0x2000300010000U, 0x2010402000005U,
  0x200030000000000U, 0x3000400000005U, 0x104000000050000U, 0x50002040005U,
  0x400000003000000U, 0x5000000010002U, 0x30400000000U, 0x403020400000100U,
  0x2000004010001U, 0x30400000000U, 0x30000000000U, 0x200000005040201U,
  0x30004000400U, 0x30000040002U, 0x1050304000000U, 0x4010000030000U,
  0x4000405040100U, 0x5000200020000U, 0x402010000000000U, 0x20000000300U,
  0x3000400U, 0x100000000000201U, 0x40000000103U, 0x500050000020400U,
  0x5000100030002U, 0x2000303000000U, 0x1000201030100U, 0x50000000001U,
  0x503010000000200U, 0x200020100000000U, 0x105000003U, 0x500000004000300U,
  0x100000004000000U, 0x503000000020400U, 0x205020000050005U, 0x204000401U,
  0x4010005000500U, 0x20500000000U, 0x300000003040000U, 0x400000305030000U,
  0x403U, 0x2000202U, 0x100000001000000U, 0x100000100000000U,
  0x10302040002U, 0x500000301000001U, 0x20005040000U, 0x10003050500U,
  0x300050500U, 0x2010103030004U, 0x50000000000U, 0x300030200000003U,
  0x301000301010000U, 0x100000300000000U, 0x300000003030500U, 0x300050100000500U,
  0x4030000030000U, 0x2000005000003U, 0x300000004030100U, 0x1000004000001U,
  0x4010000050300U, 0x200020300000500U, 0x500000400000203U, 0x1040005010000U,
  0x1000201000000U, 0x405000000000000U, 0x200000500000500U, 0x5030000030005U,
  0x50000000400U, 0x401010405U, 0x50001010400U, 0x10000020400U,
  0x500000203000004U, 0x200000002040205U, 0x200000001040000U, 0x1000000000000U,
  0x301000000010000U, 0x305030300000004U, 0x500000004050000U, 0x40105000000U,
  0x10004000500U, 0x503000000040303U, 0x500040000050000U, 0x2000004050000U,
  0x404000004050000U, 0x200000200000001U, 0x400040003040405U, 0x40100000100U,
  0x200050000U, 0x300000105050401U, 0x200020105000000U, 0x40101040000U,
  0x200020000000400U, 0x200U, 0x2000104U, 0x103050001000000U,
  0x5050000000000U, 0x100040301050000U, 0x300000000000000U, 0x503040000010002U,
  0x10002000000U, 0x400000001010003U, 0x404040000U, 0x505020400000100U,
  0x400010100000000U, 0x50000000005U, 0x20400020400U, 0x10000000304U,
  0x2030000U, 0x2000002030000U, 0x50003040200U, 0x40000030002U,
  0x204000004000100U, 0x202010000030000U, 0x0U, 0x200000400000302U,
  0x500040004000100U, 0x3000401000000U, 0x404000000000003U, 0x0U,
  0x30401040000U, 0x300000300U, 0x300000002030001U, 0x501U,
  0x500040501000004U, 0x30500U, 0x1010000000301U, 0x103000000U,
  0x100040005040100U, 0x304000402U, 0x201010405U, 0x200050000010000U,
  0x20105010000U, 0x20000000000U, 0x400040300050000U, 0x203050000000001U,
  0x502010000010000U, 0x4010000020004U, 0x4030000000100U, 0x502000001000000U,
  0x3030002U, 0x401030500U, 0x10203010000U, 0x200000000U,
  0x500000000040504U, 0x100020004000003U, 0x201050200010000U, 0x50200040004U,
  0x5000000020500U, 0x2040000000100U, 0x2020000000000U, 0x3000001000005U,
  0x402000005000500U, 0x400030000000005U, 0x4000002000500U, 0x30003000300U,
  0x10201020501U, 0x3000501000000U, 0x400000000050500U, 0x4000403U,
  0x4000102000302U, 0x204040300000400U, 0x100000300000000U, 0x300050003000501U,
  0x100030005000000U, 0x4000001000004U, 0x100000004000203U, 0x4050305000000U,
  0x400000002000200U, 0x100000000000205U, 0x402000400000500U, 0x200U,
  0x405000004000003U, 0x103020100000004U, 0x505000000030502U, 0x200000002020000U,
  0x305000000050003U, 0x2000100050100U, 0x300U, 0x50000000400U,
  0x500000003050400U, 0x5040000030400U, 0x40000010000U, 0x4030000020005U,
  0x5040000000501U, 0x400000504040000U, 0x20000000000U, 0x404030000020003U,
  0x502000300000000U, 0x300000000020200U, 0x103000000040300U, 0x305040003000205U,
  0x3000000000300U, 0x40300030100U, 0x10500U, 0x105020501000005U,
  0x1010200U, 0x103000000020000U, 0x400000500U, 0x200000400020000U,
  0x500050000050005U, 0x3000300020000U, 0x401000000050000U, 0x503000204000003U,
  0x1030201000003U, 0x1000000000000U, 0x102000001000300U, 0x40300020004U,
  0x4000000U, 0x400010300000003U, 0x200000000030000U, 0x50001000001U,
  0x200000302020503U, 0x500050300U, 0x204000000010004U, 0x20001000100U,
  0x1010003000000U, 0x300000000020005U, 0x2000000010200U, 0x403050000050004U,
  0x101050200000000U, 0x2000004U, 0x10204020000U, 0x400000403000000U,
  0x10005040001U, 0x103000004030000U, 0x5000000050000U, 0x4000403000100U,
  0x200000102030000U, 0x400000002050500U, 0x100000000U, 0x500000100020500U,
  0x105000002U, 0x201020003U, 0x202000405000000U, 0x200050303U,
  0x500050000000500U, 0x3000503000002U, 0x5040000040000U, 0x40003020000U,
  0x300050002U, 0x404000000030400U, 0x50001040003U, 0x100000100000005U,
  0x300000000020503U, 0x5040000040004U, 0x300000100000003U, 0x300030400050005U,
  0x40500U, 0x40000000300U, 0x500050200000503U, 0x40000030000U,
  0x500020500U, 0x50100000000U, 0x4010504000003U, 0x300000304040000U,
  0x2000003000002U, 0x100050100U, 0x30002000000U, 0x10201020000U,
  0x1010001U, 0x400000005000301U, 0x2050500000500U, 0x200000000050300U,
  0x200050103U, 0x305000000000002U, 0x100000000000002U, 0x500000500010003U,
  0x3050000030000U, 0x4000003000004U, 0x10205000000U, 0x404000000000300U,
  0x200030302000003U, 0x305000005020000U, 0x500000400000300U, 0x3050000000002U,
  0x200030103U, 0x500000000000301U, 0x300010200000005U, 0x100020002000005U,
  0x300000000040100U, 0x10000030200U, 0x100000000000003U, 0x40005020102U,
  0x3050000030105U, 0x404000000000400U, 0x3000302000000U, 0x3050000020000U,
  0x2000000000004U, 0x4000105000005U, 0x103030000U, 0x1000003000105U,
  0x205050000000100U, 0x4000005000004U, 0x40500020000U, 0x300000003000400U,
  0x5010403000401U, 0x5050000000500U, 0x500040400050200U, 0x20001030001U,
  0x4030000000003U, 0x4020400020300U, 0x10300U, 0x2000004000000U,
  0x40002U, 0x500000200000001U, 0x402000000050300U, 0x400000000000400U,
  0x2030000U, 0x403010003030005U, 0x500000100U, 0x500000002000100U,
  0x305000002000002U, 0x100000302U, 0x300050000000102U, 0x100030000000200U,
  0x100000500010000U, 0x200020105U, 0x400020000000105U, 0x204000300000000U,
  0x203010004000000U, 0x500000202000000U, 0x40401U, 0x200000000000100U,
  0x300000500050000U, 0x3000100040000U, 0x200000000050000U, 0x4000201020303U,
  0x100000100U, 0x505000003U, 0x20005U, 0x10000010202U,
  0x500020004U, 0x500000303050005U, 0x405010000000003U, 0x30300000500U,
  0x3050000000100U, 0x10201000501U, 0x20304000400U, 0x503000001U,
  0x503000000050500U, 0x400020000040005U, 0x2000203U, 0x101000000000501U,
  0x503050500050004U, 0x3050000U, 0x203050001000000U, 0x302000000000100U,
  0x304000400050000U, 0x300000000000200U, 0x405000000000405U, 0x10002000000U,
  0x400050504U, 0x403010102000003U, 0x40000030100U, 0x1020003000400U,
  0x103000000000003U, 0x300000503U, 0x100000004000000U, 0x104000003010300U,
  0x40300U, 0x2030000U, 0x202000403030200U, 0x300000000000000U,
  0x5030000020101U, 0x5040000U, 0x403010004000000U, 0x503000005000002U,
  0x1000000000000U, 0x50001040101U, 0x20001000000U, 0x200000400050003U,
  0x1000000000300U, 0x500020001020004U, 0x40000000005U, 0x5000005020000U,
  0x401000500000000U, 0x500000001040000U, 0x2050000030000U, 0x400000002000000U,
  0x100000004000203U, 0x100000000020500U, 0x30000050000U, 0x200050100000304U,
  0x500000500050000U, 0x10400U, 0x5020501010103U, 0x5050204000000U,
  0x3000400000000U, 0x300000200000400U, 0x2030000000000U, 0x5000000U,
  0x205000500U, 0x10400000005U, 0x50004000200U, 0x300000203000000U,
  0x5U, 0x501000001020200U, 0x500000400000502U, 0x2000202000404U,
  0x402000001000500U, 0x500000000050301U, 0x500010300U, 0x50101U,
  0x50402U, 0x200000003030005U, 0x1000004000005U, 0x5010400U,
  0x300010404010403U, 0x305000000000102U, 0x200050003U, 0x10300U,
  0x300000005010005U, 0x2040000010004U, 0x200050500000004U, 0x1U,
  0x200000000U, 0x201000000030100U, 0x1030000000403U, 0x500050402000000U,
  0x5040000000001U, 0x5000400000005U, 0x105000200000503U, 0x500000000000504U,
  0x3000000030000U, 0x401000000010200U, 0x20404U, 0x303030000020005U,
  0x200000000020003U, 0x100000500000000U, 0x3000102040100U, 0x2030200000300U,
  0x405000000040000U, 0x304000000020305U, 0x200000000000000U, 0x5000202000000U,
  0x100040100000000U, 0x402040000000000U, 0x0U, 0x40300000500U,
  0x400000004000000U, 0x402000000030003U, 0x4030000U, 0x200000005050400U,
  0x102000100000300U, 0x400050000000404U, 0x405000500000000U, 0x1030000000400U,
  0x2000002U, 0x201030304U, 0x5000000000004U, 0x202000005010200U,
  0x20003000300U, 0x2010002U, 0x5050201000000U, 0x405050301000003U,
  0x305010000000000U, 0x40000020000U, 0x300000400000200U, 0x500000500030000U,
  0x101000200000300U, 0x4000501000005U, 0x5010504000000U, 0x2000000000000U,
  0x300020000040005U, 0x40300U, 0x200040500000003U, 0x501050000000400U,
  0x200000100000002U, 0x2000100U, 0x1050400000400U, 0x505000000U,
  0x401040400U, 0x10205050404U, 0x20300U, 0x3010201000302U,
  0x100000400000000U, 0x4010004010000U, 0x3000000000005U, 0x100000000000303U,
  0x101050005010004U, 0x100040000000000U, 0x104000200U, 0x1000005050102U,
  0x40000010000U, 0x400000000040500U, 0x500000000000004U, 0x3040000040201U,
  0x302000003050000U, 0x202040500020000U, 0x1000000U, 0x500000401000002U,
  0x301000002030000U, 0x202U, 0x40005000205U, 0x2050004000000U,
  0x500000300050000U, 0x400000000000102U, 0x505000001000401U, 0x500010003000003U,
  0x5000200000000U, 0x4000000U, 0x4000405040203U, 0x500050002050000U,
  0x1050401020000U, 0x2000300010005U, 0x3050501000000U, 0x505030000000005U,
  0x302U, 0x2000000000303U, 0x5020005000000U, 0x200000500000004U,
  0x500040000U, 0x30100010500U, 0x20004000202U, 0x5000102030000U,
  0x500050100000300U, 0x2000200020200U, 0x5000300000004U, 0x5000000000200U,
  0x403050303000005U, 0x40202010102U, 0x1000000U, 0x1U,
  0x200000000050000U, 0x50005000101U, 0x5000500040300U, 0x50205000001U,
  0x204050404000000U, 0x300000000U, 0x40000000500U, 0x50003040201U,
  0x500030000040000U, 0x405000500050400U, 0x40301000000U, 0x1000305U,
  0x405000000010100U, 0x203000001000000U, 0x500030100000200U, 0x1000500000004U,
  0x5020000020400U, 0x5000500050004U, 0x10000U, 0x200000400020502U,
  0x501000000010100U, 0x30000000200U, 0x2000500020000U, 0x100010403000004U,
  0x3010000000004U, 0x400000200000100U, 0x50000000303U, 0x10200000300U,
  0x1000501010500U, 0x400020500U, 0x200000001000000U, 0x40000000500U,
  0x2040504U, 0x20000030400U, 0x500000000U, 0x304010101000005U,
  0x200040100000200U, 0x4000000U, 0x204000300010002U, 0x201000500000000U,
  0x5000001000000U, 0x20005020400U, 0x1010100000002U, 0x400000300000004U,
  0x305000005000000U, 0x503000300000000U, 0x500000100000300U, 0x500000000000503U,
  0x2020500000300U, 0x5040004U, 0x4000000000500U, 0x502000000000402U,
  0x500040000U, 0x20304010500U, 0x5000502040400U, 0x500030400000000U,
  0x300000200050000U, 0x401000000U, 0x4030302U, 0x400000004040305U,
  0x503000000000500U, 0x40000030005U, 0x300000001000400U, 0x101030400000200U,
  0x4010200000000U, 0x3000000050500U, 0x100000500000002U, 0x401030404000000U,
  0x200000000000004U, 0x300000502020005U, 0x5000004000200U, 0x500000000000400U,
  0x204000000000502U, 0x50000000003U, 0x4010004000505U, 0x3010000030003U,
  0x200000100000000U, 0x20001U, 0x30000000302U, 0x104000200000100U,
  0x300000403000000U, 0x30000000305U, 0x2000205000102U, 0x404000200U,
  0x3010000000401U, 0x1040000030001U, 0x205050000000300U, 0x30203000000U,
  0x205010000010000U, 0x4000000030305U, 0x10400000001U, 0x1000000000405U,
  0x40004030000U, 0x40200000005U, 0x1000200000502U, 0x300050000050300U,
  0x300030105000403U, 0x500040000U, 0x100030002U, 0x300000501050200U,
  0x4050000030000U, 0x404000003000003U, 0x200030500U, 0x30004030402U,
  0x4000005010000U, 0x500000501000000U, 0x3000300000003U, 0x300040000030300U,
  0x400000400U, 0x300000203030001U, 0x303000000U, 0x200050200030102U,
  0x50100000005U, 0x3000001000500U, 0x2010304000004U, 0x404000200U,
  0x5030004U, 0x300000000040203U, 0x5000203U, 0x2010004010404U,
  0x4000105000000U, 0x2000000050001U, 0x3000501000000U, 0x10002000501U,
  0x2000300000000U, 0x500000000040004U, 0x300000000050300U, 0x102000005U,
  0x5000000000200U, 0x500000400000400U, 0x3040000020004U, 0x505000502010000U,
  0x400010000020000U, 0x5000504000000U, 0x501000401010000U, 0x4000000000202U,
  0x400000200050005U, 0x3020002000000U, 0x50005000302U, 0x300000000030502U,
  0x4000000030000U, 0x200050000U, 0x4030000000000U, 0x1030500000005U,
  0x202000100000003U, 0x2000000010004U, 0x1000405000001U, 0x101000001000004U,
  0x200030000U, 0x205000302000003U, 0x302000003000500U, 0x5000000000300U,
  0x3000000010000U, 0x5000300000100U, 0x4010300U, 0x300000500050502U,
  0x200000000U, 0x2000402000000U, 0x10504000000U, 0x4010000050000U,
  0x3000003000300U, 0x50404000100U, 0x202000300000403U, 0x2030000000000U,
  0x304000000000305U, 0x40000000000U, 0x50001000005U, 0x500000301000000U,
  0x500000103000000U, 0x101040500000004U, 0x2000000000100U, 0x10005000000U,
  0x400010000000200U, 0x3010000050000U, 0x500000100040300U, 0x200030100000003U,
  0x3040000U, 0x102000000040003U, 0x403010000000004U, 0x50400000000U,
  0x300020100U, 0x104010000000104U, 0x405020500000000U, 0x20003000004U,
  0x10002050403U, 0x400030302000000U, 0x400000000000505U, 0x200000000000105U,
  0x40000010204U, 0x4000000040400U, 0x50003050500U, 0x400000100000000U,
  0x4000200010000U, 0x5010005000004U, 0x102050200000300U, 0x200030005040004U,
  0x305000000U, 0x10000010005U, 0x402000100U, 0x30000000500U,
  0x1000003020300U, 0x300000100050000U, 0x2000000010300U, 0x404020303U,
  0x301000001000400U, 0x302000500000001U, 0x3000500000000U, 0x2000404000400U,
  0x405000000000200U, 0x4000004020000U, 0x5000404U, 0x40100000205U,
  0x400020500010500U, 0x1020300030000U, 0x405040300000400U, 0x4000000010400U,
  0x300000002030000U, 0x504000000030104U, 0x3U, 0x50201000004U,
  0x1000100050000U, 0x500000000000500U, 0x300000201U, 0x4000000040105U,
  0x400000400040505U, 0x3000102040105U, 0x40500U, 0x30000000002U,
  0x300000401000000U, 0x200030503000003U, 0x303050500000000U, 0x500000305000000U,
  0x4030000000004U, 0x403010300000000U, 0x10000040002U, 0x5000203040004U,
  0x20005000004U, 0x50100000000U, 0x500030000030300U, 0x500040000U,
  0x1000000000002U, 0x305000000040200U, 0x300000401030000U, 0x5000000040003U,
  0x2040001000000U, 0x10205000000U, 0x50304040000U, 0x5010001U,
  0x4010000010000U, 0x305040000000302U, 0x3000000000000U, 0x400030000010003U,
  0x100020505020000U, 0x500000000000001U, 0x30000U, 0x400030000010000U,
  0x304000003000202U, 0x400000000000000U, 0x30005000104U, 0x1000000000005U,
  0x400000401000000U, 0x200000000030000U, 0x504000004010000U, 0x30200000000U,
  0x201010301000000U, 0x30000020000U, 0x3000300000405U, 0x2020004U,
  0x1000400040400U, 0x50200050400U, 0x4000300010500U, 0x4040305040000U,
  0x10001000000U, 0x1020000030400U, 0x4000100010000U, 0x102000005030100U,
  0x50004000000U, 0x10000000001U, 0x5050000000200U, 0x501000000000005U,
  0x3000200000100U, 0x202050200U, 0x40301000500U, 0x30201030000U,
  0x2000400030302U, 0x5000000000005U, 0x300040505000000U, 0x400040201050000U,
  0x203000000U, 0x2000004000000U, 0x400000005000000U, 0x50000U,
  0x303050400U, 0x30501000000U, 0x100050000000504U, 0x202030000030001U,
  0x503030400000000U, 0x2030400000500U, 0x403000300000100U, 0x300000000010300U,
  0x400000001010002U, 0x4000200000000U, 0x300000000010001U, 0x202000000000403U,
  0x400000005000504U, 0x5000000020005U, 0x1050004000400U, 0x0U,
  0x4020003040001U, 0x4U, 0x5000001000004U, 0x20101010500U,
  0x500000000010002U, 0x300040000000400U, 0x3030000U, 0x2050200000000U,
  0x503010000U, 0x40000U, 0x500000001050404U, 0x104000000020000U,
  0x50300030000U, 0x3010000U, 0x50000040302U, 0x200050301000005U,
  0x400000000U, 0x401020000000400U, 0x203000000000000U, 0x400000000030003U,
  0x400030000030000U, 0x2000000020002U, 0x400020100U, 0x2010304000204U,
  0x200000300000500U, 0x205020100000001U, 0x50000050000U, 0x401050300U,
  0x4040000040002U, 0x10201000005U, 0x300030504020003U, 0x400000000000000U,
  0x300000400050202U, 0x300000300000500U, 0x504040000020000U, 0x5000300U,
  0x300000000000003U, 0x4000002010000U, 0x103030000000004U, 0x300000003030000U,
  0x500000100020002U, 0x4000200050005U, 0x40101000000U, 0x300000501000100U,
  0x5000401000300U, 0x401000000010000U, 0x0U, 0x300000403U,
  0x4000005020005U, 0x204000000000400U, 0x205000501000003U, 0x5000000050002U,
  0x500000200000200U, 0x50000020400U, 0x1000000000101U, 0x1050000000201U,
  0x400000203000004U, 0x40400000100U, 0x10001050100U, 0x402000000030400U,
  0x205050200000004U, 0x2000300000002U, 0x1000200000400U, 0x203000403030000U,
  0x4050000030000U, 0x100000300000000U, 0x203000300050002U, 0x5020000000004U,
  0x30401000005U, 0x2040004000204U, 0x200040000000000U, 0x40500U,
  0x500000004050202U, 0x4040400000001U, 0x500020402000000U, 0x3010000030000U,
  0x4000403000004U, 0x4020101050000U, 0x5000000050200U, 0x10000000100U,
  0x30201U, 0x500000000000505U, 0x505000004000003U, 0x1000000000103U,
  0x50003000003U, 0x403000005010000U, 0x30300000000U, 0x20304000004U,
  0x100040104000005U, 0x50000050002U, 0x3020002030500U, 0x203000000000102U,
  0x100000004000000U, 0x300000204000300U, 0x300000404000000U, 0x20005U,
  0x200000400010004U, 0x202050000050005U, 0x3000400000000U, 0x40002020000U,
  0x30103010200U, 0x5000100030003U, 0x3050000000002U, 0x100000005030000U,
  0x104010400030005U, 0x0U, 0x100050105000005U, 0x10003000102U,
  0x40000000500U, 0x500030000050000U, 0x4010005000000U, 0x301000000050100U,
  0x10000000000U, 0x200050205010002U, 0x500030000000001U, 0x30200000500U,
  0x200000200000000U, 0x201000003000001U, 0x20505010204U, 0x5010000000000U,
  0x4000000020003U, 0x5000000020504U, 0x500010302000000U, 0x504000000U,
  0x101000002000202U, 0x300000000U, 0x200020001U, 0x1000502000001U,
  0x200000005000500U, 0x20005020003U, 0x405000000010200U, 0x3000100U,
  0x305010000020002U, 0x3000000010003U, 0x102000000050400U, 0x200000503030503U,
  0x1000004000500U, 0x200000003000500U, 0x5000000000101U, 0x2030000040005U,
  0x500000004000000U, 0x50002000303U, 0x1000404050000U, 0x20005000100U,
  0x100000000000000U, 0x100000000040003U, 0x503000000040004U, 0x300000005010003U,
  0x500000500000102U, 0x500000000040005U, 0x300040400000005U, 0x400000000000400U,
  0x20400000104U, 0x40500000001U, 0x2000000000001U, 0x3020000000503U,
  0x103000004000005U, 0x5000000000002U, 0x20004U, 0x4000401000203U,
  0x4000200000003U, 0x400040504000005U, 0x400010000050000U, 0x1030005U,
  0x400030005U, 0x500000001050005U, 0x40500050000U, 0x100000100010002U,
  0x300040404U, 0x5040200000001U, 0x303000004U, 0x204000000000204U,
  0x100000004000502U, 0x1000205000000U, 0x200000500040300U, 0x1000002000000U,
  0x500000500000000U, 0x403000300U, 0x10301U, 0x403020101000000U,
  0x305050104U, 0x5050000000200U, 0x50000040500U, 0x300000003030000U,
  0x20102U, 0x300000003000002U, 0x40001000004U, 0x200000002000005U,
  0x300000002000000U, 0x305050000000000U, 0x300040000U, 0x20000020004U,
  0x4050000000104U, 0x40000000400U, 0x300000400000000U, 0x40500000100U,
  0x500000304U, 0x5050100U, 0x10500000004U, 0x3000004030400U,
  0x3000200000001U, 0x20305000402U, 0x30000000000U, 0x50400000201U,
  0x4020000U, 0x400030305010405U, 0x1010000000300U, 0x500000400000400U,
  0x40003000002U, 0x4030004U, 0x4050004U, 0x10300U,
  0x400000000050101U, 0x301000000030004U, 0x1010500000003U, 0x302020000010000U,
  0x4000001030000U, 0x4000100000504U, 0x5000000000100U, 0x502000004000004U,
  0x50100U, 0x400030104000405U, 0x50000000005U, 0x400000000030303U,
  0x205020000000005U, 0x40002000000U, 0x3050005030300U, 0x10001000304U,
  0x4030400000500U, 0x1000004000000U, 0x500020000U, 0x201000000040000U,
  0x500000401030204U, 0x1000000020004U, 0x300000001010500U, 0x40300000500U,
  0x202000000010005U, 0x200020100000100U, 0x300000000000000U, 0x10000010000U,
  0x1000400040500U, 0x500030500U, 0x10401020202U, 0x3000100010000U,
  0x500000200030000U, 0x400000000020200U, 0x500000203U, 0x5000003010400U,
  0x5020000000200U, 0x300000300000405U, 0x200030001040000U, 0x400000003000300U,
  0x100040301000005U, 0x103000000U, 0x5000004000002U, 0x2000200030001U,
  0x500000200050000U, 0x400000200030004U, 0x50003050000U, 0x102050000000400U,
  0x300000100000500U, 0x1050205020003U, 0x20200U, 0x30500U,
  0x5000000050101U, 0x4000001000000U, 0x10201000200U, 0x200000000010004U,
  0x30500U, 0x400000000000000U, 0x403000000010004U, 0x504040000U,
  0x403000500000400U, 0x201000300040500U, 0x502000001010400U, 0x500040000000000U,
  0x5000000000400U, 0x10004050001U, 0x504000004U, 0x400010304000000U,
  0x30500000000U, 0x500000000010000U, 0x301000005U, 0x104020004040100U,
  0x204050000000000U, 0x1000000000204U, 0x4000004000004U, 0x100020004020401U,
  0x2000001000000U, 0x400010000000502U, 0x400030102030000U, 0x10000000300U,
  0x302000000000500U, 0x40001050300U, 0x100040305U, 0x502000001020002U,
  0x500000400000000U, 0x10000010000U, 0x500000000040405U, 0x300030100000203U,
  0x502010000050100U, 0x10000000200U, 0x2000000000504U, 0x501000002000500U,
  0x202050001000302U, 0x30000U, 0x30005000400U, 0x203000000030505U,
  0x40001000500U, 0x3050503000400U, 0x4000000U, 0x300010000050100U,
  0x3020501000000U, 0x201000001000000U, 0x3020000040003U, 0x100010000000100U,
  0x5050401040000U, 0x3040000U, 0x20000010300U, 0x30400000002U,
  0x304000505000002U, 0x401000000000000U, 0x404040000020003U, 0x302000000000500U,
  0x5000004000500U, 0x401000000U, 0x302040001000301U, 0x503000000000000U,
  0x100000004010501U, 0x300050001050504U, 0x405000000040000U, 0x1050000000300U,
  0x200000005U, 0x105000000020003U, 0x4020000U, 0x302000005000300U,
  0x405030000000000U, 0x200040200000100U, 0x5040104000000U, 0x2U,
  0x50000030000U, 0x300010004000003U, 0x100000400U, 0x40000020000U,
  0x5010000050305U, 0x502000002000005U, 0x5040002U, 0x100040503000004U,
  0x404010000U, 0x3050400000104U, 0x103U, 0x102000205050001U,
  0x40000000104U, 0x401000300000000U, 0x20000000000U, 0x100000200000000U,
  0x403020000000002U, 0x4000400040000U, 0x104000400000005U, 0x200000000U,
  0x3000000000202U, 0x10005000500U, 0x201000200000500U, 0x300000500050002U,
  0x300000000040102U, 0x3020004000501U, 0x1000001000100U, 0x5050000050100U,
  0x3000004050000U, 0x500000001020005U, 0x2020000U, 0x404000300U,
  0x100000300040000U, 0x205000005030400U, 0x500000000040503U, 0x4010000030100U,
  0x300000000000402U, 0x300000400010402U, 0x50000000001U, 0x400000301U,
  0x400000305050000U, 0x403000002000000U, 0x202040000000500U, 0x200050100000000U,
  0x501050000050000U, 0x10300000300U, 0x100000303000200U, 0x50003050000U,
  0x104000500000400U, 0x5000000040100U, 0x100000001U, 0x300030501030003U,
  0x4000000040000U, 0x1000401050000U, 0x100000005U, 0x4040304U,
  0x401000001000005U, 0x1000300000500U, 0x3050000000100U, 0x20003000003U,
  0x400000000020003U, 0x30301U, 0x300000401U, 0x4000101000003U,
  0x403030000000001U, 0x5000004000000U, 0x301000000020500U, 0x400000300000000U,
  0x300010400000002U, 0x10000000205U, 0x300010200U, 0x5000100040100U,
  0x3000000040200U, 0x4000300030103U, 0x1000003000200U, 0x10000000400U,
  0x300000000040000U, 0x100000001000201U, 0x305000100000105U, 0x20500000302U,
  0x500040004U, 0x5020000030300U, 0x203000005000500U, 0x100000004040004U,
  0x503000004000000U, 0x300030004U, 0x405000003U, 0x3020400030000U,
  0x500000500000001U, 0x305000005000500U, 0x405040201050000U, 0x400020000U,
  0x505010203000003U, 0x100000500000000U, 0x4030102040000U, 0x100000500020005U,
  0x100000004000000U, 0x1000002050003U, 0x1050400000000U, 0x400000400U,
  0x100000003000004U, 0x200000005040100U, 0x20004000401U, 0x100000401U,
  0x100000002000005U, 0x500000005010201U, 0x502030000000000U, 0x400000000000105U,
  0x100000000030100U, 0x200000300000000U, 0x404040000U, 0x302U,
  0x304000300020002U, 0x5000000000003U, 0x400030503030100U, 0x200000005030300U,
  0x400000001010000U, 0x101000400050001U, 0x4000000U, 0x300020005050000U,
  0x403000400000100U, 0x1040001U, 0x402000000020000U, 0x100000400000100U,
  0x300000000010005U, 0x50000040000U, 0x4000103000400U, 0x105050403000000U,
  0x4050400000000U, 0x5000200000001U, 0x102000000050200U, 0x2020004010200U,
  0x400000100000501U, 0x40200000000U, 0x102000000030001U, 0x10000040500U,
  0x300000001050200U, 0x40001U, 0x501000000010405U, 0x3000302000000U,
  0x300010000000000U, 0x503050000000005U, 0x30500030000U, 0x501000001030500U,
  0x4000400000004U, 0x500040100000000U, 0x500000000020000U, 0x3000001000002U,
  0x3030500000002U, 0x503000005000004U, 0x1020000040000U, 0x500000000U,
  0x400000302000501U, 0x4000004000000U, 0x10002000100U, 0x3000005020000U,
  0x2000002000005U, 0x200000400000203U, 0x2000003000202U, 0x400000203040300U,
  0x1000001030000U, 0x2000204000502U, 0x2000100000000U, 0x40500U,
  0x10201050000U, 0x503000500000400U, 0x5040000000000U, 0x3000400040004U,
  0x30005040000U, 0x20500030005U, 0x30000000000U, 0x3000003000500U,
  0x503000005010100U, 0x504030000U, 0x10201000004U, 0x100000000U,
  0x3000000050305U, 0x30004000000U, 0x40002040305U, 0x401030000000000U,
  0x200030502U, 0x4000004030000U, 0x200030000010000U, 0x103000003000000U,
  0x4050001000004U, 0x4000100030000U, 0x10000050100U, 0x200040100000300U,
  0x4050000030000U, 0x1000404000203U, 0x4000101020000U, 0x502030000000004U,
  0x400000000000300U, 0x100000100000003U, 0x100000000000404U, 0x100010002040000U,
  0x4010005000001U, 0x200000500050000U, 0x1000000000000U, 0x100020000000003U,
  0x5000000U, 0x103000002040000U, 0x400000000000102U, 0x105050000000002U,
  0x4000304U, 0x10000020304U, 0x20002010404U, 0x4000000010003U,
  0x305000200000003U, 0x3010403000000U, 0x5000005000002U, 0x50000050404U,
  0x200000004000000U, 0x300000002000000U, 0x400000002020100U, 0x40300000005U,
  0x1020000000003U, 0x20000010000U, 0x2000501000202U, 0x200U,
  0x204010400000100U, 0x4000202000303U, 0x3000505000001U, 0x200050000000000U,
  0x5000000030105U, 0x500000400U, 0x3000000010004U, 0x50000000100U,
  0x404030201000003U, 0x300000000U, 0x305000100U, 0x503050200U,
  0x50003000000U, 0x1000100010501U, 0x3010001000300U, 0x300010000U,
  0x3030003000000U, 0x30000030005U, 0x205U, 0x504000200040001U,
  0x500000004000502U, 0x50500000201U, 0x4000400030201U, 0x500040200000000U,
  0x200010101000000U, 0x300000100000002U, 0x500050000020005U, 0x20505000000U,
  0x1030400000500U, 0x3000400000002U, 0x500000000000303U, 0x4000404U,
  0x105040200000200U, 0x300050000000000U, 0x103000003040000U, 0x4000402020000U,
  0x402040100000003U, 0x40000000003U, 0x5050101U, 0x300000401000000U,
  0x4030000000300U, 0x50200000004U, 0x300030000000001U, 0x4000300000405U,
  0x200010004010100U, 0x5010000010100U, 0x500000200020000U, 0x40002000302U,
  0x4040200000004U, 0x1000500000000U, 0x5000003000304U, 0x3040200000000U,
  0x50300050200U, 0x401000003000002U, 0x303030000000005U, 0x300040100000000U,
  0x100000500000503U, 0x5000000000000U, 0x20503050100U, 0x103000000000304U,
  0x502050003U, 0x500000000030200U, 0x300U, 0x50300000000U,
  0x500000000040304U, 0x404020000000000U, 0x200000100020403U, 0x4000300000000U,
  0x500050002000500U, 0x303000000030400U, 0x104000000030005U, 0x300040000U,
  0x10303050000U, 0x4030200000500U, 0x400030001010000U, 0x100050000000000U,
  0x40005000000U, 0x1000500040000U, 0x300000302000005U, 0x5030100000001U,
  0x500000102000000U, 0x30000050000U, 0x5000000030002U, 0x40401000001U,
  0x300020000000001U, 0x300040000020000U, 0x104000100U, 0x300000000050202U,
  0x5010000050405U, 0x10004010000U, 0x300000001000500U, 0x3000500000004U,
  0x100040000000000U, 0x5000003000002U, 0x500000001U, 0x4000005010200U,
  0x2000500050000U, 0x200010101000000U, 0x2000200000000U, 0x203000304000000U,
  0x302000000000002U, 0x5040300U, 0x40000000403U, 0x100020200000402U,
  0x3000401000000U, 0x102020000000303U, 0x300000000U, 0x500050502020000U,
  0x500000100030000U, 0x305040000000500U, 0x1000405000000U, 0x105000100000005U,
  0x500000200U, 0x505000001050000U, 0x40004000000U, 0x500020000040004U,
  0x500010200010000U, 0x204U, 0x10500000304U, 0x2000003000405U,
  0x50000020300U, 0x300000000000002U, 0x4040000050003U, 0x305U,
  0x304000000050000U, 0x500000400010005U, 0x3000000010504U, 0x501000001040000U,
  0x5030400000300U, 0x200000001000300U, 0x504000001000403U, 0x3000004010003U,
  0x403000004000500U, 0x50003000200U, 0x40005000400U, 0x100000005030000U,
  0x100050000U, 0x500000400000100U, 0x3000000050402U, 0x1000001000003U,
  0x200000203040000U, 0x304020100000005U, 0x5000000U, 0x30302000003U,
  0x1U, 0x203000000000305U, 0x400000301U, 0x10305000000U,
  0x100000300050400U, 0x10000040000U, 0x200000000000005U, 0x200000300U,
  0x300000000040305U, 0x20005040405U, 0x501050000000000U, 0x300040000020500U,
  0x300000000000000U, 0x4010200000002U, 0x1000000000000U, 0x205000300U,
  0x10000040500U, 0x100000304U, 0x200000302040000U, 0x205050000030000U,
  0x1000203000000U, 0x3000101000000U, 0x4000003000100U, 0x400050504020400U,
  0x30000050004U, 0x505000003U, 0x40000000001U, 0x502000001040500U,
  0x2000004U, 0x40002010200U, 0x501000000000405U, 0x5010303U,
  0x10404000000U, 0x3050005000300U, 0x500000301020000U, 0x5000000020300U,
  0x304000000040302U, 0x30400000305U, 0x501030001U, 0x100000100030000U,
  0x30500000000U, 0x300000005000305U, 0x502030000000000U, 0x105000001U,
  0x1010005U, 0x200050000020005U, 0x30004050002U, 0x2000004000000U,
  0x30000020203U, 0x1000004050000U, 0x30001030500U, 0x30400000001U,
  0x204030402000000U, 0x205U, 0x1000000020500U, 0x50005000400U,
  0x102000000000000U, 0x404000100000002U, 0x101000005030001U, 0x500000000000001U,
  0x1030000020000U, 0x500000402050104U, 0x3030003000005U, 0x102000001000100U,
  0x500050000000005U, 0x204000300010000U, 0x3000000000000U, 0x4000503000000U,
  0x401010000000400U, 0x303000000010000U, 0x400U, 0x400000002000500U,
  0x403000500000500U, 0x20000000105U, 0x10400000004U, 0x200050302000200U,
  0x3000000U, 0x200010002050004U, 0x40500040000U, 0x1050000000001U,
  0x502000104000300U, 0x200010100000000U, 0x300020004000205U, 0x305000000000000U,
  0x500000500030000U, 0x40000000104U, 0x304000000020204U, 0x5040000000100U,
  0x502000100U, 0x103020000010000U, 0x400000400000000U, 0x10400000304U,
  0x2000003010000U, 0x502000000020000U, 0x5010100000105U, 0x403000000000001U,
  0x30404000000U, 0x50100000005U, 0x40004050000U, 0x302000004010000U,
  0x5040000000200U, 0x3000005000000U, 0x2000400000505U, 0x5020000000100U,
  0x4000104000000U, 0x2020000010200U, 0x400000400020000U, 0x100020100020000U,
  0x20000010000U, 0x20400010004U, 0x201030500U, 0x5000000U,
  0x300000002010002U, 0x3040004030404U, 0x40000U, 0x4000505U,
  0x500000100000405U, 0x500000503000002U, 0x20304U, 0x4020404010005U,
  0x5000001000501U, 0x10300000400U, 0x10000000202U, 0x504050500000004U,
  0x202U, 0x304000000030004U, 0x3040000000003U, 0x200030400U,
  0x5000100U, 0x500000001040000U, 0x1050004040100U, 0x304000002000004U,
  0x2000303000000U, 0x4000301000400U, 0x200020000000002U, 0x400050300040000U,
  0x101050000050000U, 0x400020000000004U, 0x20001050000U, 0x400020200U,
  0x100040101000000U, 0x500020200000400U, 0x3000000050102U, 0x1U,
  0x50000010003U, 0x200040200000503U, 0x100000100000000U, 0x200030000000401U,
  0x202000000020005U, 0x100000002000301U, 0x40000040000U, 0x200030001050305U,
  0x3000002040000U, 0x100000204U, 0x2000203010300U, 0x2000500050001U,
  0x101000400000100U, 0x405010400000500U, 0x200020000000000U, 0x200010005000000U,
  0x1000004000200U, 0x200000400040100U, 0x400000002000100U, 0x300020100000001U,
  0x304030400000000U, 0x30004020000U, 0x500000005000000U, 0x301000101U,
  0x30001000004U, 0x500000300050001U, 0x2030200000200U, 0x5000003000000U,
  0x401040100000000U, 0x1030001050000U, 0x301000004030000U, 0x400030000000003U,
  0x1010005U, 0x2000000010100U, 0x5010300000000U, 0x4010000000000U,
  0x400050000000104U, 0x204010500000000U, 0x4000005000103U, 0x500000003030002U,
  0x4020001U, 0x40000000402U, 0x4020500040003U, 0x500000401000000U,
  0x303000500000000U, 0x10100010002U, 0x400020000030000U, 0x5010500000200U,
  0x20004000005U, 0x400000004010304U, 0x300010000000002U, 0x100050500000001U,
  0x3000005000301U, 0x20200000403U, 0x20000000100U, 0x40002010200U,
  0x301010300000200U, 0x500010005050500U, 0x400000004000000U, 0x1000300000000U,
  0x4000300000000U, 0x3010304U, 0x30003000200U, 0x50100000304U,
  0x100000302U, 0x50202010105U, 0x304050000000000U, 0x500000000010100U,
  0x300030000000001U, 0x204000004010000U, 0x200000000000200U, 0x100020000000200U,
  0x501000000U, 0x50004000004U, 0x400040005010000U, 0x100000000010300U,
  0x2000000000500U, 0x20000000001U, 0x204000000000100U, 0x300000300U,
  0x301000000020001U, 0x3000004000000U, 0x501030301000400U, 0x200000000020504U,
  0x300020000U, 0x3040100U, 0x5020300000005U, 0x304000000040000U,
  0x5010000020300U, 0x30000020000U, 0x200000304U, 0x400050000000105U,
  0x3000000050504U, 0x10300010000U, 0x10000030200U, 0x200000005030105U,
  0x40000000002U, 0x402010000040004U, 0x102000400U, 0x300000000U,
  0x302000000010000U, 0x303000100000400U, 0x500020202000000U, 0x200030003020400U,
  0x100020000010000U, 0x300020400000000U, 0x100000104000000U, 0x2000300030001U,
  0x403040100050000U, 0x300000000030000U, 0x500000100000400U, 0x4000402000204U,
  0x20000000002U, 0x302000003000100U, 0x500000000000304U, 0x200000000U,
  0x301030000000500U, 0x201020000000200U, 0x4010200000000U, 0x400000000020300U,
  0x400030305000000U, 0x3000400020000U, 0x1020000050005U, 0x2000101030000U,
  0x50000010002U, 0x305000001010204U, 0x100000003020000U, 0x4030004U,
  0x4010000020000U, 0x1000000030000U, 0x30004030300U, 0x505000000U,
  0x400020300000001U, 0x400040104020000U, 0x4000300000000U, 0x50002000300U,
  0x2000500030300U, 0x2040003020200U, 0x201000100000000U, 0x500000000050004U,
  0x400000400020000U, 0x104020003010000U, 0x503000004030000U, 0x404030000000003U,
  0x303020000040000U, 0x30004040000U, 0x5040500U, 0x300000100040002U,
  0x204010000010000U, 0x40000010303U, 0x400000400000001U, 0x2010005000300U,
  0x10002000000U, 0x400050300U, 0x4030000000002U, 0x300040304U,
  0x200040304000000U, 0x3030000020001U, 0x400000000040400U, 0x30000U,
  0x5000000040500U, 0x203000003000103U, 0x4000000000001U, 0x20500000502U,
  0x2000500U, 0x103000002000402U, 0x304010300U, 0x40200U,
  0x20000000004U, 0x300050200010202U, 0x50402000400U, 0x2030000010002U,
  0x50001000000U, 0x40002000003U, 0x304030501000005U, 0x0U,
  0x500000400000003U, 0x4000000U, 0x400000502010400U, 0x500010000030000U,
  0x3000000U, 0x3000005U, 0x40103050000U, 0x400040004000500U,
  0x400000200000004U, 0x503030000040000U, 0x504020000000000U, 0x3050004U,
  0x4000501020500U, 0x4000000010301U, 0x1000000000000U, 0x4000400050004U,
  0x3010000U, 0x100000300010300U, 0x40003000004U, 0x4010400000000U,
  0x504000500U, 0x40004000000U, 0x205010101U, 0x3010000000100U,
  0x5000000020000U, 0x503000000010000U, 0x30502010000U, 0x200020401030000U,
  0x200000000U, 0x300000500000000U, 0x204000001030000U, 0x3040000000005U,
  0x100000100040000U, 0x500050100000000U, 0x403030000000300U, 0x3000005010003U,
  0x300000000000005U, 0x504000005000200U, 0x20005000005U, 0x402010000000300U,
  0x400000000000002U, 0x400030400000004U, 0x100000304000000U, 0x102040000U,
  0x5010000U, 0x500010503030500U, 0x40300000100U, 0x203000004000200U,
  0x200040001000000U, 0x3000205000000U, 0x40002000002U, 0x1030000000400U,
  0x4040005000002U, 0x200000400000100U, 0x300000200030200U, 0x102000000020003U,
  0x503000000030000U, 0x400030101000000U, 0x1000005030000U, 0x50000000202U,
  0x30105000001U, 0x500000300U, 0x5000004020100U, 0x403020205U,
  0x400000200U, 0x400000501000000U, 0x100000300U, 0x502000004050400U,
  0x40004050404U, 0x4020000000300U, 0x500030402000400U, 0x5000000040000U,
  0x50200000000U, 0x30300010000U, 0x40000000003U, 0x403000000030503U,
  0x301000002000000U, 0x400000000010300U, 0x3000000020204U, 0x30000000100U,
  0x5010002050000U, 0x5050100U, 0x5030003030100U, 0x500000005000005U,
  0x4000000030400U, 0x40000000000U, 0x2040101050201U, 0x404000000U,
  0x1000004030000U, 0x4000000030400U, 0x100000003U, 0x5020501000003U,
  0x204030500000301U, 0x2000000000400U, 0x400040000030001U, 0x304050400050000U,
  0x5000404000000U, 0x304000000000000U, 0x300040502000000U, 0x300000005040003U,
  0x5000001000302U, 0x400050000000504U, 0x4030000000000U, 0x105010000020000U,
  0x100000000050400U, 0x10000020000U, 0x400000300000402U, 0x2000000000100U,
  0x500000004U, 0x10202000000U, 0x400000300000002U, 0x30100000000U,
  0x500050200030100U, 0x4000002020203U, 0x50000000001U, 0x500040000010100U,
  0x40100U, 0x101000000U, 0x300000503000001U, 0x202020300000004U,
  0x5010000000400U, 0x5030502000000U, 0x50005000004U, 0x4000200U,
  0x10205040000U, 0x104030004000003U, 0x4000301050001U, 0x505010002000003U,
  0x5000000000000U, 0x3030005050200U, 0x301010505000000U, 0x100050100U,
  0x205000000000000U, 0x100000004020000U, 0x30003040500U, 0x201000002U,
  0x300000200030003U, 0x104000001000300U, 0x3020005U, 0x302000401U,
  0x4030000000405U, 0x300000100040000U, 0x504010000U, 0x50003000200U,
  0x504050303000005U, 0x503000100000000U, 0x10401000002U, 0x40000000200U,
  0x200050400000402U, 0x40400000201U, 0x203020000000503U, 0x40305000000U,
  0x204000000U, 0x20301U, 0x10000000405U, 0x2000004000401U,
  0x300000401000400U, 0x200000300000003U, 0x3050000010000U, 0x105050001000300U,
  0x3000004000501U, 0x300U, 0x403050000U, 0x501050000000205U,
  0x40400010501U, 0x402000000020200U, 0x40003U, 0x10000010003U,
  0x400000404000203U, 0x405000000040005U, 0x302040000U, 0x10203000500U,
  0x100000000000400U, 0x502000000000302U, 0x3000400000400U, 0x404030000000005U,
  0x102000002000100U, 0x105030200U, 0x5020000000100U, 0x400000005000300U,
  0x500000000000302U, 0x200000501000005U, 0x40000000005U, 0x40000000002U,
  0x101000001U, 0x3000002U, 0x100000001040402U, 0x100000100030000U,
  0x5000004030000U, 0x101000004030000U, 0x300000004000004U, 0x104020002000000U,
  0x300000000040000U, 0x403000103030000U, 0x3000000000200U, 0x2010105U,
  0x503050003U, 0x400000000050100U, 0x10005000405U, 0x4000000020002U,
  0x10400000500U, 0x2000002U, 0x100050505000001U, 0x1000103000000U,
  0x204000002000200U, 0x100000000030001U, 0x5000100000201U, 0x4040300000100U,
  0x50000020002U, 0x1000001000500U, 0x500000004050000U, 0x1000002000300U,
  0x3010005U, 0x1000003020200U, 0x30503000100U, 0x400000303U,
  0x405040405U, 0x300010000000100U, 0x2040000000100U, 0x2000100000000U,
  0x20002010000U, 0x200000000000000U, 0x100030000000200U, 0x10000000001U,
  0x30102030205U, 0x5020000010000U, 0x500000300U, 0x50004000300U,
  0x100010000U, 0x100010000040002U, 0x50000020105U, 0x100050101010300U,
  0x50001010000U, 0x402000100U, 0x200000000050405U, 0x503000205U,
  0x3010300030000U, 0x201040000000003U, 0x4010504000000U, 0x202000000000004U,
  0x404000000040400U, 0x502000004000000U, 0x10000020500U, 0x10200000001U,
  0x40000040200U, 0x502000205050202U, 0x1000004000000U, 0x1000200000000U,
  0x401000002000003U, 0x400000400040001U, 0x200050000000001U, 0x4000000000504U,
  0x1000403030001U, 0x100010400U, 0x40001000005U, 0x102030000010005U,
  0x500000003U, 0x4000004000000U, 0x2020501000100U, 0x20003020000U,
  0x4050505040200U, 0x2000001000000U, 0x40503000000U, 0x40002000004U,
  0x30004050400U, 0x300000004000202U, 0x2000000000002U, 0x3030503020000U,
  0x3000000010000U, 0x300000400000100U, 0x200040000U, 0x101010203000000U,
  0x200U, 0x200000003050400U, 0x300010300000400U, 0x3000505000005U,
  0x404000000000300U, 0x300000001000402U, 0x405000105000000U, 0x1000100000003U,
  0x4000000020300U, 0x2000202010000U, 0x100000004030500U, 0x1000400040004U,
  0x4030200U, 0x1000200000003U, 0x300030100000200U, 0x40305000000U,
  0x1020200U, 0x1000500000105U, 0x501000005010100U, 0x3000004000400U,
  0x305000000020000U, 0x200020001040004U, 0x300000400000104U, 0x1000001000001U,
  0x2030400U, 0x302000301000005U, 0x400000200000300U, 0x1000005000000U,
  0x403000000U, 0x4010000000300U, 0x1020500U, 0x400000000030005U,
  0x300000100000004U, 0x4000000030004U, 0x500000400000400U, 0x103010301U,
  0x5040102000000U, 0x302000000000401U, 0x4000000050000U, 0x400000405000000U,
  0x5010003040000U, 0x305030001000202U, 0x1000003000000U, 0x401000000030002U,
  0x500000500000005U, 0x4030001000402U, 0x3040004000002U, 0x400000004000300U,
  0x40400U, 0x30400040304U, 0x304000001000002U, 0x100030000000000U,
  0x300000500000000U, 0x5010000000000U, 0x502000105010000U, 0x1000502000000U,
  0x104000400000000U, 0x5010200000003U, 0x1000400000203U, 0x103030000050000U,
  0x201000000000000U, 0x102020303000000U, 0x200U, 0x402000001000401U,
  0x4000000040000U, 0x20202000002U, 0x204030000U, 0x300000000050005U,
  0x30205040403U, 0x5000000000000U, 0x10000010000U, 0x500000500040001U,
  0x403000000U, 0x301020401000004U, 0x500000500000200U, 0x100000100U,
  0x300000200U, 0x50000000503U, 0x502000000000300U, 0x3000000040100U,
  0x50000050000U, 0x300030404000000U, 0x1050400000000U, 0x1020000050005U,
  0x1050000030400U, 0x200030000000200U, 0x201050401040000U, 0x1000005000003U,
  0x300000500040000U, 0x10005000000U, 0x300050003U, 0x300040000030003U,
  0x3000000000105U, 0x1050403000500U, 0x200030203U, 0x30200050000U,
  0x105040003000000U, 0x405000001000000U, 0x400000000030000U, 0x2010000040005U,
  0x500050000020000U, 0x20400020000U, 0x201000005000000U, 0x40000050004U,
  0x301000304U, 0x104000000050200U, 0x3030502040000U, 0x4010300000000U,
  0x100U, 0x2020100030005U, 0x304010000000000U, 0x100000000040502U,
  0x4050500000100U, 0x4000000000100U, 0x20500020205U, 0x0U,
  0x1010400000001U, 0x2000400000004U, 0x403000301020500U, 0x50500000000U,
  0x4020400000205U, 0x10002050000U, 0x100000200000203U, 0x3030000U,
  0x300010200000405U, 0x50000000001U, 0x401050000U, 0x400030000050200U,
  0x504030200U, 0x4000000030400U, 0x200030004000001U, 0x4000200000204U,
  0x10000000301U, 0x1000000000000U, 0x50000010005U, 0x500030000050100U,
  0x5000400000000U, 0x500050002050400U, 0x400010002020000U, 0x30000000004U,
  0x10500000304U, 0x1050100U, 0x1000001U, 0x200000002000001U,
  0x404000004000001U, 0x40001010501U, 0x201040305000004U, 0x100040000U,
  0x2040000000300U, 0x204000500000000U, 0x30000050000U, 0x2050000000500U,
  0x50005010000U, 0x3000503000000U, 0x200000000U, 0x103000002030104U,
  0x3000401U, 0x4000400U, 0x502040500U, 0x40000000001U,
  0x40205000003U, 0x40000000403U, 0x4010105020001U, 0x404050000050002U,
  0x4020000000000U, 0x5000004000500U, 0x400000002000400U, 0x30400000004U,
  0x2040000030000U, 0x40300030000U, 0x400050000000205U, 0x200030001U,
  0x4000401000002U, 0x203000000030002U, 0x102030000030000U, 0x5030100000500U,
  0x400010000U, 0x4000105010000U, 0x40000050300U, 0x30000050304U,
  0x1000005040500U, 0x302010200000400U, 0x100030000U, 0x30000000000U,
  0x303020100U, 0x10500020200U, 0x3000000000000U, 0x105000004U,
  0x20005010000U, 0x5000000000303U, 0x503050000020000U, 0x500000000000000U,
  0x3050401000004U, 0x50001020000U, 0x100010400000305U, 0x300000000010003U,
  0x5000403000000U, 0x5040300000500U, 0x50500020400U, 0x20301050000U,
  0x400020000030203U, 0x302040303000000U, 0x0U, 0x102U,
  0x400000005000001U, 0x500000000000501U, 0x5040000020000U, 0x4030000000300U,
  0x50000020000U, 0x4010300000305U, 0x400000000000002U, 0x204000000000302U,
  0x503000000000000U, 0x503000000020000U, 0x3010000000001U, 0x500000005000000U,
  0x3000200010304U, 0x1030000000201U, 0x5000000030003U, 0x500020004000004U,
  0x40001000000U, 0x400000503030002U, 0x200030000010000U, 0x5000000010200U,
  0x403000003040002U, 0x500000400000004U, 0x50000000000U, 0x203000000040003U,
  0x100000000000000U, 0x300000204000105U, 0x100000001U, 0x503040500000300U,
  0x400000300000000U, 0x2000002050300U, 0x20000000002U, 0x505030000000500U,
  0x2000404000000U, 0x200050500000000U, 0x102000000050100U, 0x100000100000001U,
  0x500000000000003U, 0x500000403U, 0x2000000000502U, 0x500020005000004U,
  0x205000000030000U, 0x1020000U, 0x202000001U, 0x3030100000003U,
  0x303000400U, 0x402010300000100U, 0x502000001000404U, 0x1000101000000U,
  0x4040002000000U, 0x10004000000U, 0x20102000400U, 0x10000010002U,
  0x4000005000102U, 0x4000100000200U, 0x1040000000100U, 0x4000000000002U,
  0x1040203000000U, 0x3000000000003U, 0x3000300040000U, 0x405000000030400U,
  0x300000205000000U, 0x304030000000001U, 0x105000002000000U, 0x50204050102U,
  0x500000200010000U, 0x5000000000003U, 0x4040000000200U, 0x200000403000002U,
  0x5050200000300U, 0x30003050000U, 0x300020000040005U, 0x304030100000300U,
  0x405000000U, 0x2050000040000U, 0x400000301010000U, 0x2040000U,
  0x10400000503U, 0x104000003020000U, 0x201000002U, 0x100020004U,
  0x40002050003U, 0x305000000010300U, 0x203000404U, 0x5000103000500U,
  0x401000000U, 0x300000304050401U, 0x300020000U, 0x1030000030201U,
  0x405000000U, 0x2000000050002U, 0x3000005000000U, 0x1000004030203U,
  0x4030000020100U, 0x400000005000000U, 0x3000000050002U, 0x301050200000000U,
  0x1000000U, 0x300000000000305U, 0x501000004030000U, 0x30100000000U,
  0x204010000000501U, 0x3020304000000U, 0x503050000000301U, 0x3040000U,
  0x500U, 0x100000000040000U, 0x300000000000003U, 0x5000000000003U,
  0x1020000000200U, 0x3000200000300U, 0x405000002050000U, 0x401050000U,
  0x5000303040005U, 0x20005000000U, 0x50000020005U, 0x3000000040002U,
  0x20200000000U, 0x400030003000500U, 0x1030200000005U, 0x400000100000305U,
  0x1000004000300U, 0x400000204000400U, 0x100010000020005U, 0x300010000U,
  0x404010000030000U, 0x102050000010003U, 0x2010500020004U, 0x3000000000003U,
  0x300030000000000U, 0x40004U, 0x10405U, 0x502040002U,
  0x100000200000004U, 0x302000400000300U, 0x1040000050000U, 0x400000005000004U,
  0x5040400U, 0x20001U, 0x10004040304U, 0x3020000000003U,
  0x10000020300U, 0x30400000001U, 0x2000002U, 0x4030102000301U,
  0x401000000000000U, 0x100000300000400U, 0x5040000000000U, 0x405030502020004U,
  0x200U, 0x3000000040005U, 0x5050000000103U, 0x400050000U,
  0x10002000301U, 0x302000002030005U, 0x400000003000004U, 0x403000000U,
  0x4010000030105U, 0x303000000010000U, 0x50002040004U, 0x400040000000103U,
  0x5000003000003U, 0x4000004010100U, 0x3000200000401U, 0x501040000U,
  0x50400000502U, 0x204050300U, 0x100010101010000U, 0x200000000050100U,
  0x304000000000303U, 0x300040000020003U, 0x201010504000000U, 0x4010005000001U,
  0x100010000020000U, 0x100000003U, 0x304000005000502U, 0x100020004000000U,
  0x500000200000400U, 0x401000400U, 0x40005010000U, 0x401000000020000U,
  0x30002000000U, 0x400000000010500U, 0x300040000040305U, 0x300030000000000U,
